TRT-6001-EntropyCalibration2
Input: 3c010204
Const: 3c010a14
MultipleGridAnchorGenerator: 3a4fb8dc
MultipleGridAnchorGenerator_1: 3a4fb8dc
MultipleGridAnchorGenerator_2: 3a4fb8dc
MultipleGridAnchorGenerator_3: 3a4fb8dc
MultipleGridAnchorGenerator_4: 3a4fb8dc
MultipleGridAnchorGenerator_5: 3a4fb8dc
concat_priorbox: 3a4fb8dc
FeatureExtractor/MobilenetV2/Conv/Conv2D: 3d9d36a1
FeatureExtractor/MobilenetV2/Conv/BatchNorm/FusedBatchNorm: 3da0bbe3
FeatureExtractor/MobilenetV2/Conv/Relu6: 3d418306
FeatureExtractor/MobilenetV2/expanded_conv/depthwise/depthwise: 3da730f8
FeatureExtractor/MobilenetV2/expanded_conv/depthwise/BatchNorm/FusedBatchNorm: 3d4f081f
FeatureExtractor/MobilenetV2/expanded_conv/depthwise/Relu6: 3d418306
FeatureExtractor/MobilenetV2/expanded_conv/project/Conv2D: 3de0d65f
FeatureExtractor/MobilenetV2/expanded_conv/project/BatchNorm/FusedBatchNorm: 3dc1a6b2
FeatureExtractor/MobilenetV2/expanded_conv_1/expand/Conv2D: 3e04e713
FeatureExtractor/MobilenetV2/expanded_conv_1/expand/BatchNorm/FusedBatchNorm: 3dc1c63b
FeatureExtractor/MobilenetV2/expanded_conv_1/expand/Relu6: 3d418306
FeatureExtractor/MobilenetV2/expanded_conv_1/depthwise/depthwise: 3d84a728
FeatureExtractor/MobilenetV2/expanded_conv_1/depthwise/BatchNorm/FusedBatchNorm: 3d977bd1
FeatureExtractor/MobilenetV2/expanded_conv_1/depthwise/Relu6: 3d418306
FeatureExtractor/MobilenetV2/expanded_conv_1/project/Conv2D: 3e036bb6
FeatureExtractor/MobilenetV2/expanded_conv_1/project/BatchNorm/FusedBatchNorm: 3dbd4eab
FeatureExtractor/MobilenetV2/expanded_conv_2/expand/Conv2D: 3ddd7fe9
FeatureExtractor/MobilenetV2/expanded_conv_2/expand/BatchNorm/FusedBatchNorm: 3db2e816
FeatureExtractor/MobilenetV2/expanded_conv_2/expand/Relu6: 3d418306
FeatureExtractor/MobilenetV2/expanded_conv_2/depthwise/depthwise: 3d392969
FeatureExtractor/MobilenetV2/expanded_conv_2/depthwise/BatchNorm/FusedBatchNorm: 3dafb2ee
FeatureExtractor/MobilenetV2/expanded_conv_2/depthwise/Relu6: 3d418306
FeatureExtractor/MobilenetV2/expanded_conv_2/project/Conv2D: 3dd9caf9
FeatureExtractor/MobilenetV2/expanded_conv_2/project/BatchNorm/FusedBatchNorm: 3da8cef0
FeatureExtractor/MobilenetV2/expanded_conv_2/add: 3dd78c80
FeatureExtractor/MobilenetV2/expanded_conv_3/expand/Conv2D: 3dfd88c1
FeatureExtractor/MobilenetV2/expanded_conv_3/expand/BatchNorm/FusedBatchNorm: 3db4bd68
FeatureExtractor/MobilenetV2/expanded_conv_3/expand/Relu6: 3d418306
FeatureExtractor/MobilenetV2/expanded_conv_3/depthwise/depthwise: 3d8a5d50
FeatureExtractor/MobilenetV2/expanded_conv_3/depthwise/BatchNorm/FusedBatchNorm: 3da654e1
FeatureExtractor/MobilenetV2/expanded_conv_3/depthwise/Relu6: 3d418306
FeatureExtractor/MobilenetV2/expanded_conv_3/project/Conv2D: 3def54b4
FeatureExtractor/MobilenetV2/expanded_conv_3/project/BatchNorm/FusedBatchNorm: 3dabe79f
FeatureExtractor/MobilenetV2/expanded_conv_4/expand/Conv2D: 3dd1293b
FeatureExtractor/MobilenetV2/expanded_conv_4/expand/BatchNorm/FusedBatchNorm: 3dab3698
FeatureExtractor/MobilenetV2/expanded_conv_4/expand/Relu6: 3d418306
FeatureExtractor/MobilenetV2/expanded_conv_4/depthwise/depthwise: 3d32fba6
FeatureExtractor/MobilenetV2/expanded_conv_4/depthwise/BatchNorm/FusedBatchNorm: 3d8d3641
FeatureExtractor/MobilenetV2/expanded_conv_4/depthwise/Relu6: 3d418306
FeatureExtractor/MobilenetV2/expanded_conv_4/project/Conv2D: 3dd38af7
FeatureExtractor/MobilenetV2/expanded_conv_4/project/BatchNorm/FusedBatchNorm: 3da41147
FeatureExtractor/MobilenetV2/expanded_conv_4/add: 3dcc3346
FeatureExtractor/MobilenetV2/expanded_conv_5/expand/Conv2D: 3dc2303f
FeatureExtractor/MobilenetV2/expanded_conv_5/expand/BatchNorm/FusedBatchNorm: 3d981588
FeatureExtractor/MobilenetV2/expanded_conv_5/expand/Relu6: 3d418306
FeatureExtractor/MobilenetV2/expanded_conv_5/depthwise/depthwise: 3d248aa5
FeatureExtractor/MobilenetV2/expanded_conv_5/depthwise/BatchNorm/FusedBatchNorm: 3d9c2fd5
FeatureExtractor/MobilenetV2/expanded_conv_5/depthwise/Relu6: 3d418306
FeatureExtractor/MobilenetV2/expanded_conv_5/project/Conv2D: 3dcc2da1
FeatureExtractor/MobilenetV2/expanded_conv_5/project/BatchNorm/FusedBatchNorm: 3da8ff8c
FeatureExtractor/MobilenetV2/expanded_conv_5/add: 3e09367c
FeatureExtractor/MobilenetV2/expanded_conv_6/expand/Conv2D: 3e15cff2
FeatureExtractor/MobilenetV2/expanded_conv_6/expand/BatchNorm/FusedBatchNorm: 3d92af04
FeatureExtractor/MobilenetV2/expanded_conv_6/expand/Relu6: 3d418306
FeatureExtractor/MobilenetV2/expanded_conv_6/depthwise/depthwise: 3d53ac72
FeatureExtractor/MobilenetV2/expanded_conv_6/depthwise/BatchNorm/FusedBatchNorm: 3d8cd152
FeatureExtractor/MobilenetV2/expanded_conv_6/depthwise/Relu6: 3d418306
FeatureExtractor/MobilenetV2/expanded_conv_6/project/Conv2D: 3defaed2
FeatureExtractor/MobilenetV2/expanded_conv_6/project/BatchNorm/FusedBatchNorm: 3d9da1d2
FeatureExtractor/MobilenetV2/expanded_conv_7/expand/Conv2D: 3da28fdf
FeatureExtractor/MobilenetV2/expanded_conv_7/expand/BatchNorm/FusedBatchNorm: 3dade047
FeatureExtractor/MobilenetV2/expanded_conv_7/expand/Relu6: 3d418306
FeatureExtractor/MobilenetV2/expanded_conv_7/depthwise/depthwise: 3cfa1241
FeatureExtractor/MobilenetV2/expanded_conv_7/depthwise/BatchNorm/FusedBatchNorm: 3da5d2d8
FeatureExtractor/MobilenetV2/expanded_conv_7/depthwise/Relu6: 3d418306
FeatureExtractor/MobilenetV2/expanded_conv_7/project/Conv2D: 3dd04249
FeatureExtractor/MobilenetV2/expanded_conv_7/project/BatchNorm/FusedBatchNorm: 3d7b5426
FeatureExtractor/MobilenetV2/expanded_conv_7/add: 3dc5d9ac
FeatureExtractor/MobilenetV2/expanded_conv_8/expand/Conv2D: 3db63286
FeatureExtractor/MobilenetV2/expanded_conv_8/expand/BatchNorm/FusedBatchNorm: 3d90bef0
FeatureExtractor/MobilenetV2/expanded_conv_8/expand/Relu6: 3d418306
FeatureExtractor/MobilenetV2/expanded_conv_8/depthwise/depthwise: 3cd78e21
FeatureExtractor/MobilenetV2/expanded_conv_8/depthwise/BatchNorm/FusedBatchNorm: 3d8d3a07
FeatureExtractor/MobilenetV2/expanded_conv_8/depthwise/Relu6: 3d418306
FeatureExtractor/MobilenetV2/expanded_conv_8/project/Conv2D: 3da2d644
FeatureExtractor/MobilenetV2/expanded_conv_8/project/BatchNorm/FusedBatchNorm: 3d78fcdb
FeatureExtractor/MobilenetV2/expanded_conv_8/add: 3df49511
FeatureExtractor/MobilenetV2/expanded_conv_9/expand/Conv2D: 3dd2445a
FeatureExtractor/MobilenetV2/expanded_conv_9/expand/BatchNorm/FusedBatchNorm: 3d8e811d
FeatureExtractor/MobilenetV2/expanded_conv_9/expand/Relu6: 3d418306
FeatureExtractor/MobilenetV2/expanded_conv_9/depthwise/depthwise: 3cc36f7e
FeatureExtractor/MobilenetV2/expanded_conv_9/depthwise/BatchNorm/FusedBatchNorm: 3d8d337f
FeatureExtractor/MobilenetV2/expanded_conv_9/depthwise/Relu6: 3d418306
FeatureExtractor/MobilenetV2/expanded_conv_9/project/Conv2D: 3d811f1b
FeatureExtractor/MobilenetV2/expanded_conv_9/project/BatchNorm/FusedBatchNorm: 3d7ff905
FeatureExtractor/MobilenetV2/expanded_conv_9/add: 3e1999e3
FeatureExtractor/MobilenetV2/expanded_conv_10/expand/Conv2D: 3e2d72da
FeatureExtractor/MobilenetV2/expanded_conv_10/expand/BatchNorm/FusedBatchNorm: 3d8648bf
FeatureExtractor/MobilenetV2/expanded_conv_10/expand/Relu6: 3d418306
FeatureExtractor/MobilenetV2/expanded_conv_10/depthwise/depthwise: 3ce7aa19
FeatureExtractor/MobilenetV2/expanded_conv_10/depthwise/BatchNorm/FusedBatchNorm: 3d8d6b5c
FeatureExtractor/MobilenetV2/expanded_conv_10/depthwise/Relu6: 3d418306
FeatureExtractor/MobilenetV2/expanded_conv_10/project/Conv2D: 3dd667a7
FeatureExtractor/MobilenetV2/expanded_conv_10/project/BatchNorm/FusedBatchNorm: 3d45e664
FeatureExtractor/MobilenetV2/expanded_conv_11/expand/Conv2D: 3d4870e7
FeatureExtractor/MobilenetV2/expanded_conv_11/expand/BatchNorm/FusedBatchNorm: 3d63bb5b
FeatureExtractor/MobilenetV2/expanded_conv_11/expand/Relu6: 3d418306
FeatureExtractor/MobilenetV2/expanded_conv_11/depthwise/depthwise: 3c9d3822
FeatureExtractor/MobilenetV2/expanded_conv_11/depthwise/BatchNorm/FusedBatchNorm: 3d9a8246
FeatureExtractor/MobilenetV2/expanded_conv_11/depthwise/Relu6: 3d418306
FeatureExtractor/MobilenetV2/expanded_conv_11/project/Conv2D: 3da93650
FeatureExtractor/MobilenetV2/expanded_conv_11/project/BatchNorm/FusedBatchNorm: 3d4f29ad
FeatureExtractor/MobilenetV2/expanded_conv_11/add: 3d912b81
FeatureExtractor/MobilenetV2/expanded_conv_12/expand/Conv2D: 3d9ad912
FeatureExtractor/MobilenetV2/expanded_conv_12/expand/BatchNorm/FusedBatchNorm: 3d488570
FeatureExtractor/MobilenetV2/expanded_conv_12/expand/Relu6: 3d418306
FeatureExtractor/MobilenetV2/expanded_conv_12/depthwise/depthwise: 3c9005a4
FeatureExtractor/MobilenetV2/expanded_conv_12/depthwise/BatchNorm/FusedBatchNorm: 3d82985e
FeatureExtractor/MobilenetV2/expanded_conv_12/depthwise/Relu6: 3d418306
FeatureExtractor/MobilenetV2/expanded_conv_12/project/Conv2D: 3d9680d0
FeatureExtractor/MobilenetV2/expanded_conv_12/project/BatchNorm/FusedBatchNorm: 3d75d789
FeatureExtractor/MobilenetV2/expanded_conv_12/add: 3dd20417
FeatureExtractor/MobilenetV2/expanded_conv_13/expand/Conv2D: 3e24e2f0
FeatureExtractor/MobilenetV2/expanded_conv_13/expand/BatchNorm/FusedBatchNorm: 3d576bb6
FeatureExtractor/MobilenetV2/expanded_conv_13/expand/Relu6: 3d418306
BoxPredictor_0/BoxEncodingPredictor_depthwise/depthwise: 3c52034f
BoxPredictor_0/BoxEncodingPredictor_depthwise/BatchNorm/FusedBatchNorm: 3d60f461
BoxPredictor_0/BoxEncodingPredictor_depthwise/Relu6: 3d418306
BoxPredictor_0/BoxEncodingPredictor/Conv2D: 3e4e9b0a
BoxPredictor_0/BoxEncodingPredictor/BiasAdd: 3e484d28
FeatureExtractor/MobilenetV2/expanded_conv_13/depthwise/depthwise: 3cc1cdee
FeatureExtractor/MobilenetV2/expanded_conv_13/depthwise/BatchNorm/FusedBatchNorm: 3d75976a
FeatureExtractor/MobilenetV2/expanded_conv_13/depthwise/Relu6: 3d418306
FeatureExtractor/MobilenetV2/expanded_conv_13/project/Conv2D: 3dac639f
FeatureExtractor/MobilenetV2/expanded_conv_13/project/BatchNorm/FusedBatchNorm: 3d3315e2
FeatureExtractor/MobilenetV2/expanded_conv_14/expand/Conv2D: 3d3b1c62
FeatureExtractor/MobilenetV2/expanded_conv_14/expand/BatchNorm/FusedBatchNorm: 3d3f73af
FeatureExtractor/MobilenetV2/expanded_conv_14/expand/Relu6: 3d418306
FeatureExtractor/MobilenetV2/expanded_conv_14/depthwise/depthwise: 3c54c3ab
FeatureExtractor/MobilenetV2/expanded_conv_14/depthwise/BatchNorm/FusedBatchNorm: 3d835bfa
FeatureExtractor/MobilenetV2/expanded_conv_14/depthwise/Relu6: 3d418306
FeatureExtractor/MobilenetV2/expanded_conv_14/project/Conv2D: 3d9a3712
FeatureExtractor/MobilenetV2/expanded_conv_14/project/BatchNorm/FusedBatchNorm: 3d2a012a
FeatureExtractor/MobilenetV2/expanded_conv_14/add: 3d7b7786
FeatureExtractor/MobilenetV2/expanded_conv_15/expand/Conv2D: 3d81dbaf
FeatureExtractor/MobilenetV2/expanded_conv_15/expand/BatchNorm/FusedBatchNorm: 3d2f644f
FeatureExtractor/MobilenetV2/expanded_conv_15/expand/Relu6: 3d418306
FeatureExtractor/MobilenetV2/expanded_conv_15/depthwise/depthwise: 3c4018d7
FeatureExtractor/MobilenetV2/expanded_conv_15/depthwise/BatchNorm/FusedBatchNorm: 3d6e3466
FeatureExtractor/MobilenetV2/expanded_conv_15/depthwise/Relu6: 3d418306
FeatureExtractor/MobilenetV2/expanded_conv_15/project/Conv2D: 3d807bf1
FeatureExtractor/MobilenetV2/expanded_conv_15/project/BatchNorm/FusedBatchNorm: 3d53b318
FeatureExtractor/MobilenetV2/expanded_conv_15/add: 3da52c3c
FeatureExtractor/MobilenetV2/expanded_conv_16/expand/Conv2D: 3de19aca
FeatureExtractor/MobilenetV2/expanded_conv_16/expand/BatchNorm/FusedBatchNorm: 3d310722
FeatureExtractor/MobilenetV2/expanded_conv_16/expand/Relu6: 3d418306
FeatureExtractor/MobilenetV2/expanded_conv_16/depthwise/depthwise: 3c945556
FeatureExtractor/MobilenetV2/expanded_conv_16/depthwise/BatchNorm/FusedBatchNorm: 3d6158ae
FeatureExtractor/MobilenetV2/expanded_conv_16/depthwise/Relu6: 3d418306
FeatureExtractor/MobilenetV2/expanded_conv_16/project/Conv2D: 3d991663
FeatureExtractor/MobilenetV2/expanded_conv_16/project/BatchNorm/FusedBatchNorm: 3d3f72cb
FeatureExtractor/MobilenetV2/Conv_1/Conv2D: 3dc25b84
FeatureExtractor/MobilenetV2/Conv_1/BatchNorm/FusedBatchNorm: 3d2c855a
FeatureExtractor/MobilenetV2/Conv_1/Relu6: 3d418306
BoxPredictor_1/BoxEncodingPredictor_depthwise/depthwise: 3ba7a242
BoxPredictor_1/BoxEncodingPredictor_depthwise/BatchNorm/FusedBatchNorm: 3d35bb77
BoxPredictor_1/BoxEncodingPredictor_depthwise/Relu6: 3d418306
BoxPredictor_1/BoxEncodingPredictor/Conv2D: 3d323383
BoxPredictor_1/BoxEncodingPredictor/BiasAdd: 3d2a3dc9
FeatureExtractor/MobilenetV2/layer_19_1_Conv2d_2_1x1_256/Conv2D: 3d922b7a
FeatureExtractor/MobilenetV2/layer_19_1_Conv2d_2_1x1_256/BatchNorm/FusedBatchNorm: 3d21e969
FeatureExtractor/MobilenetV2/layer_19_1_Conv2d_2_1x1_256/Relu6: 3d418306
FeatureExtractor/MobilenetV2/layer_19_2_Conv2d_2_3x3_s2_512_depthwise/depthwise: 3ca5d677
FeatureExtractor/MobilenetV2/layer_19_2_Conv2d_2_3x3_s2_512_depthwise/BatchNorm/FusedBatchNorm: 3d5ceb4d
FeatureExtractor/MobilenetV2/layer_19_2_Conv2d_2_3x3_s2_512_depthwise/Relu6: 3d418306
FeatureExtractor/MobilenetV2/layer_19_2_Conv2d_2_3x3_s2_512/Conv2D: 3d1de3a8
FeatureExtractor/MobilenetV2/layer_19_2_Conv2d_2_3x3_s2_512/BatchNorm/FusedBatchNorm: 3d427efb
FeatureExtractor/MobilenetV2/layer_19_2_Conv2d_2_3x3_s2_512/Relu6: 3d418306
BoxPredictor_2/BoxEncodingPredictor_depthwise/depthwise: 3b986bf5
BoxPredictor_2/BoxEncodingPredictor_depthwise/BatchNorm/FusedBatchNorm: 3d40f378
BoxPredictor_2/BoxEncodingPredictor_depthwise/Relu6: 3d418306
BoxPredictor_2/BoxEncodingPredictor/Conv2D: 3cf62e4d
BoxPredictor_2/BoxEncodingPredictor/BiasAdd: 3d04f75b
FeatureExtractor/MobilenetV2/layer_19_1_Conv2d_3_1x1_128/Conv2D: 3dadd1a0
FeatureExtractor/MobilenetV2/layer_19_1_Conv2d_3_1x1_128/BatchNorm/FusedBatchNorm: 3d58e615
FeatureExtractor/MobilenetV2/layer_19_1_Conv2d_3_1x1_128/Relu6: 3d418306
FeatureExtractor/MobilenetV2/layer_19_2_Conv2d_3_3x3_s2_256_depthwise/depthwise: 3ccec430
FeatureExtractor/MobilenetV2/layer_19_2_Conv2d_3_3x3_s2_256_depthwise/BatchNorm/FusedBatchNorm: 3d3b6cfc
FeatureExtractor/MobilenetV2/layer_19_2_Conv2d_3_3x3_s2_256_depthwise/Relu6: 3d418306
FeatureExtractor/MobilenetV2/layer_19_2_Conv2d_3_3x3_s2_256/Conv2D: 3d14af62
FeatureExtractor/MobilenetV2/layer_19_2_Conv2d_3_3x3_s2_256/BatchNorm/FusedBatchNorm: 3d7d2d5e
FeatureExtractor/MobilenetV2/layer_19_2_Conv2d_3_3x3_s2_256/Relu6: 3d418306
BoxPredictor_3/BoxEncodingPredictor_depthwise/depthwise: 3ba227ad
BoxPredictor_3/BoxEncodingPredictor_depthwise/BatchNorm/FusedBatchNorm: 3d8b6f16
BoxPredictor_3/BoxEncodingPredictor_depthwise/Relu6: 3d418306
BoxPredictor_3/BoxEncodingPredictor/Conv2D: 3d25dd3f
BoxPredictor_3/BoxEncodingPredictor/BiasAdd: 3d2113f9
FeatureExtractor/MobilenetV2/layer_19_1_Conv2d_4_1x1_128/Conv2D: 3d3b4f7b
FeatureExtractor/MobilenetV2/layer_19_1_Conv2d_4_1x1_128/BatchNorm/FusedBatchNorm: 3d74ef02
FeatureExtractor/MobilenetV2/layer_19_1_Conv2d_4_1x1_128/Relu6: 3d418306
FeatureExtractor/MobilenetV2/layer_19_2_Conv2d_4_3x3_s2_256_depthwise/depthwise: 3c667cf2
FeatureExtractor/MobilenetV2/layer_19_2_Conv2d_4_3x3_s2_256_depthwise/BatchNorm/FusedBatchNorm: 3d3d6810
FeatureExtractor/MobilenetV2/layer_19_2_Conv2d_4_3x3_s2_256_depthwise/Relu6: 3d418306
FeatureExtractor/MobilenetV2/layer_19_2_Conv2d_4_3x3_s2_256/Conv2D: 3c89a966
FeatureExtractor/MobilenetV2/layer_19_2_Conv2d_4_3x3_s2_256/BatchNorm/FusedBatchNorm: 3d8098f0
FeatureExtractor/MobilenetV2/layer_19_2_Conv2d_4_3x3_s2_256/Relu6: 3d418306
BoxPredictor_4/BoxEncodingPredictor_depthwise/depthwise: 3b9366f9
BoxPredictor_4/BoxEncodingPredictor_depthwise/BatchNorm/FusedBatchNorm: 3d8815ae
BoxPredictor_4/BoxEncodingPredictor_depthwise/Relu6: 3d418306
BoxPredictor_4/BoxEncodingPredictor/Conv2D: 3cc2eafc
BoxPredictor_4/BoxEncodingPredictor/BiasAdd: 3cd35b89
FeatureExtractor/MobilenetV2/layer_19_1_Conv2d_5_1x1_64/Conv2D: 3d435ee4
FeatureExtractor/MobilenetV2/layer_19_1_Conv2d_5_1x1_64/BatchNorm/FusedBatchNorm: 3d883e6a
FeatureExtractor/MobilenetV2/layer_19_1_Conv2d_5_1x1_64/Relu6: 3d418306
FeatureExtractor/MobilenetV2/layer_19_2_Conv2d_5_3x3_s2_128_depthwise/depthwise: 3c615995
FeatureExtractor/MobilenetV2/layer_19_2_Conv2d_5_3x3_s2_128_depthwise/BatchNorm/FusedBatchNorm: 3d45a5ff
FeatureExtractor/MobilenetV2/layer_19_2_Conv2d_5_3x3_s2_128_depthwise/Relu6: 3d418306
FeatureExtractor/MobilenetV2/layer_19_2_Conv2d_5_3x3_s2_128/Conv2D: 3cfb287c
FeatureExtractor/MobilenetV2/layer_19_2_Conv2d_5_3x3_s2_128/BatchNorm/FusedBatchNorm: 3db5ec3d
FeatureExtractor/MobilenetV2/layer_19_2_Conv2d_5_3x3_s2_128/Relu6: 3d418306
BoxPredictor_5/BoxEncodingPredictor_depthwise/depthwise: 3b98de78
BoxPredictor_5/BoxEncodingPredictor_depthwise/BatchNorm/FusedBatchNorm: 3d6dd5f7
BoxPredictor_5/BoxEncodingPredictor_depthwise/Relu6: 3d418306
BoxPredictor_5/BoxEncodingPredictor/Conv2D: 3cccc20e
BoxPredictor_5/BoxEncodingPredictor/BiasAdd: 3cf4209f
BoxPredictor_0/ClassPredictor_depthwise/depthwise: 3c9a32d2
BoxPredictor_0/ClassPredictor_depthwise/BatchNorm/FusedBatchNorm: 3d5d425a
BoxPredictor_0/ClassPredictor_depthwise/Relu6: 3d418306
BoxPredictor_0/ClassPredictor/Conv2D: 3e40ada6
BoxPredictor_0/ClassPredictor/BiasAdd: 3e40e866
BoxPredictor_1/ClassPredictor_depthwise/depthwise: 3c415c50
BoxPredictor_1/ClassPredictor_depthwise/BatchNorm/FusedBatchNorm: 3d6826d2
BoxPredictor_1/ClassPredictor_depthwise/Relu6: 3d418306
BoxPredictor_1/ClassPredictor/Conv2D: 3e9bade0
BoxPredictor_1/ClassPredictor/BiasAdd: 3ea56be6
BoxPredictor_2/ClassPredictor_depthwise/depthwise: 3c38c1f5
BoxPredictor_2/ClassPredictor_depthwise/BatchNorm/FusedBatchNorm: 3d9384e7
BoxPredictor_2/ClassPredictor_depthwise/Relu6: 3d418306
BoxPredictor_2/ClassPredictor/Conv2D: 3e520714
BoxPredictor_2/ClassPredictor/BiasAdd: 3e56a350
BoxPredictor_3/ClassPredictor_depthwise/depthwise: 3c6a3084
BoxPredictor_3/ClassPredictor_depthwise/BatchNorm/FusedBatchNorm: 3da0a3b6
BoxPredictor_3/ClassPredictor_depthwise/Relu6: 3d418306
BoxPredictor_3/ClassPredictor/Conv2D: 3e1c3db2
BoxPredictor_3/ClassPredictor/BiasAdd: 3e1bc9b0
BoxPredictor_4/ClassPredictor_depthwise/depthwise: 3bd7ad9c
BoxPredictor_4/ClassPredictor_depthwise/BatchNorm/FusedBatchNorm: 3dbb56da
BoxPredictor_4/ClassPredictor_depthwise/Relu6: 3d418306
BoxPredictor_4/ClassPredictor/Conv2D: 3db49e16
BoxPredictor_4/ClassPredictor/BiasAdd: 3dbd10ac
BoxPredictor_5/ClassPredictor_depthwise/depthwise: 3c1329bf
BoxPredictor_5/ClassPredictor_depthwise/BatchNorm/FusedBatchNorm: 3d955a65
BoxPredictor_5/ClassPredictor_depthwise/Relu6: 3d418306
BoxPredictor_5/ClassPredictor/Conv2D: 3d8999da
BoxPredictor_5/ClassPredictor/BiasAdd: 3da48d08
Postprocessor: 3c010a14
