TRT-6001-EntropyCalibration2
Input: 3c010204
Const: 3c010a14
MultipleGridAnchorGenerator: 3a4fb8dc
MultipleGridAnchorGenerator_1: 3a4fb8dc
MultipleGridAnchorGenerator_2: 3a4fb8dc
MultipleGridAnchorGenerator_3: 3a4fb8dc
MultipleGridAnchorGenerator_4: 3a4fb8dc
MultipleGridAnchorGenerator_5: 3a4fb8dc
concat_priorbox: 3a4fb8dc
FeatureExtractor/MobilenetV1/MobilenetV1/Conv2d_0/Conv2D: 3d88759c
FeatureExtractor/MobilenetV1/MobilenetV1/Conv2d_0/BatchNorm/FusedBatchNorm: 3dced982
FeatureExtractor/MobilenetV1/MobilenetV1/Conv2d_0/Relu6: 3d418306
FeatureExtractor/MobilenetV1/MobilenetV1/Conv2d_1_depthwise/depthwise: 3dd665ba
FeatureExtractor/MobilenetV1/MobilenetV1/Conv2d_1_depthwise/BatchNorm/FusedBatchNorm: 3dd9e006
FeatureExtractor/MobilenetV1/MobilenetV1/Conv2d_1_depthwise/Relu6: 3d418306
FeatureExtractor/MobilenetV1/MobilenetV1/Conv2d_1_pointwise/Conv2D: 3e236c75
FeatureExtractor/MobilenetV1/MobilenetV1/Conv2d_1_pointwise/BatchNorm/FusedBatchNorm: 3dfcf479
FeatureExtractor/MobilenetV1/MobilenetV1/Conv2d_1_pointwise/Relu6: 3d418306
FeatureExtractor/MobilenetV1/MobilenetV1/Conv2d_2_depthwise/depthwise: 3dc16ff1
FeatureExtractor/MobilenetV1/MobilenetV1/Conv2d_2_depthwise/BatchNorm/FusedBatchNorm: 3dd51b5c
FeatureExtractor/MobilenetV1/MobilenetV1/Conv2d_2_depthwise/Relu6: 3d418306
FeatureExtractor/MobilenetV1/MobilenetV1/Conv2d_2_pointwise/Conv2D: 3dcbe19b
FeatureExtractor/MobilenetV1/MobilenetV1/Conv2d_2_pointwise/BatchNorm/FusedBatchNorm: 3d9dac57
FeatureExtractor/MobilenetV1/MobilenetV1/Conv2d_2_pointwise/Relu6: 3d418306
FeatureExtractor/MobilenetV1/MobilenetV1/Conv2d_3_depthwise/depthwise: 3d3f9df3
FeatureExtractor/MobilenetV1/MobilenetV1/Conv2d_3_depthwise/BatchNorm/FusedBatchNorm: 3d9c2dbb
FeatureExtractor/MobilenetV1/MobilenetV1/Conv2d_3_depthwise/Relu6: 3d418306
FeatureExtractor/MobilenetV1/MobilenetV1/Conv2d_3_pointwise/Conv2D: 3dd18a4c
FeatureExtractor/MobilenetV1/MobilenetV1/Conv2d_3_pointwise/BatchNorm/FusedBatchNorm: 3d8a39ab
FeatureExtractor/MobilenetV1/MobilenetV1/Conv2d_3_pointwise/Relu6: 3d418306
FeatureExtractor/MobilenetV1/MobilenetV1/Conv2d_4_depthwise/depthwise: 3d36f1e6
FeatureExtractor/MobilenetV1/MobilenetV1/Conv2d_4_depthwise/BatchNorm/FusedBatchNorm: 3d7d4265
FeatureExtractor/MobilenetV1/MobilenetV1/Conv2d_4_depthwise/Relu6: 3d418306
FeatureExtractor/MobilenetV1/MobilenetV1/Conv2d_4_pointwise/Conv2D: 3d8a3d62
FeatureExtractor/MobilenetV1/MobilenetV1/Conv2d_4_pointwise/BatchNorm/FusedBatchNorm: 3d649b25
FeatureExtractor/MobilenetV1/MobilenetV1/Conv2d_4_pointwise/Relu6: 3d418306
FeatureExtractor/MobilenetV1/MobilenetV1/Conv2d_5_depthwise/depthwise: 3d158c87
FeatureExtractor/MobilenetV1/MobilenetV1/Conv2d_5_depthwise/BatchNorm/FusedBatchNorm: 3d6d2e39
FeatureExtractor/MobilenetV1/MobilenetV1/Conv2d_5_depthwise/Relu6: 3d418306
FeatureExtractor/MobilenetV1/MobilenetV1/Conv2d_5_pointwise/Conv2D: 3d8a96fd
FeatureExtractor/MobilenetV1/MobilenetV1/Conv2d_5_pointwise/BatchNorm/FusedBatchNorm: 3d53d0d8
FeatureExtractor/MobilenetV1/MobilenetV1/Conv2d_5_pointwise/Relu6: 3d418306
FeatureExtractor/MobilenetV1/MobilenetV1/Conv2d_6_depthwise/depthwise: 3d141125
FeatureExtractor/MobilenetV1/MobilenetV1/Conv2d_6_depthwise/BatchNorm/FusedBatchNorm: 3daac522
FeatureExtractor/MobilenetV1/MobilenetV1/Conv2d_6_depthwise/Relu6: 3d418306
FeatureExtractor/MobilenetV1/MobilenetV1/Conv2d_6_pointwise/Conv2D: 3d9a21b9
FeatureExtractor/MobilenetV1/MobilenetV1/Conv2d_6_pointwise/BatchNorm/FusedBatchNorm: 3d5ce44a
FeatureExtractor/MobilenetV1/MobilenetV1/Conv2d_6_pointwise/Relu6: 3d418306
FeatureExtractor/MobilenetV1/MobilenetV1/Conv2d_7_depthwise/depthwise: 3cdb1595
FeatureExtractor/MobilenetV1/MobilenetV1/Conv2d_7_depthwise/BatchNorm/FusedBatchNorm: 3da85aa0
FeatureExtractor/MobilenetV1/MobilenetV1/Conv2d_7_depthwise/Relu6: 3d418306
FeatureExtractor/MobilenetV1/MobilenetV1/Conv2d_7_pointwise/Conv2D: 3d99ab36
FeatureExtractor/MobilenetV1/MobilenetV1/Conv2d_7_pointwise/BatchNorm/FusedBatchNorm: 3d455705
FeatureExtractor/MobilenetV1/MobilenetV1/Conv2d_7_pointwise/Relu6: 3d418306
FeatureExtractor/MobilenetV1/MobilenetV1/Conv2d_8_depthwise/depthwise: 3cb11e8a
FeatureExtractor/MobilenetV1/MobilenetV1/Conv2d_8_depthwise/BatchNorm/FusedBatchNorm: 3d8cf037
FeatureExtractor/MobilenetV1/MobilenetV1/Conv2d_8_depthwise/Relu6: 3d418306
FeatureExtractor/MobilenetV1/MobilenetV1/Conv2d_8_pointwise/Conv2D: 3d911a43
FeatureExtractor/MobilenetV1/MobilenetV1/Conv2d_8_pointwise/BatchNorm/FusedBatchNorm: 3d46e2b4
FeatureExtractor/MobilenetV1/MobilenetV1/Conv2d_8_pointwise/Relu6: 3d418306
FeatureExtractor/MobilenetV1/MobilenetV1/Conv2d_9_depthwise/depthwise: 3ccef033
FeatureExtractor/MobilenetV1/MobilenetV1/Conv2d_9_depthwise/BatchNorm/FusedBatchNorm: 3d86a4a1
FeatureExtractor/MobilenetV1/MobilenetV1/Conv2d_9_depthwise/Relu6: 3d418306
FeatureExtractor/MobilenetV1/MobilenetV1/Conv2d_9_pointwise/Conv2D: 3d931bc7
FeatureExtractor/MobilenetV1/MobilenetV1/Conv2d_9_pointwise/BatchNorm/FusedBatchNorm: 3d3e9ce9
FeatureExtractor/MobilenetV1/MobilenetV1/Conv2d_9_pointwise/Relu6: 3d418306
FeatureExtractor/MobilenetV1/MobilenetV1/Conv2d_10_depthwise/depthwise: 3cbb7aa5
FeatureExtractor/MobilenetV1/MobilenetV1/Conv2d_10_depthwise/BatchNorm/FusedBatchNorm: 3d704071
FeatureExtractor/MobilenetV1/MobilenetV1/Conv2d_10_depthwise/Relu6: 3d418306
FeatureExtractor/MobilenetV1/MobilenetV1/Conv2d_10_pointwise/Conv2D: 3db9c858
FeatureExtractor/MobilenetV1/MobilenetV1/Conv2d_10_pointwise/BatchNorm/FusedBatchNorm: 3d479c84
FeatureExtractor/MobilenetV1/MobilenetV1/Conv2d_10_pointwise/Relu6: 3d418306
FeatureExtractor/MobilenetV1/MobilenetV1/Conv2d_11_depthwise/depthwise: 3d094ba1
FeatureExtractor/MobilenetV1/MobilenetV1/Conv2d_11_depthwise/BatchNorm/FusedBatchNorm: 3de6e00e
FeatureExtractor/MobilenetV1/MobilenetV1/Conv2d_11_depthwise/Relu6: 3d418306
FeatureExtractor/MobilenetV1/MobilenetV1/Conv2d_11_pointwise/Conv2D: 3dc9e95f
FeatureExtractor/MobilenetV1/MobilenetV1/Conv2d_11_pointwise/BatchNorm/FusedBatchNorm: 3d70ab83
FeatureExtractor/MobilenetV1/MobilenetV1/Conv2d_11_pointwise/Relu6: 3d418306
BoxPredictor_0/BoxEncodingPredictor/Conv2D: 3ec7eb8f
BoxPredictor_0/BoxEncodingPredictor/BiasAdd: 3ec774c4
FeatureExtractor/MobilenetV1/MobilenetV1/Conv2d_12_depthwise/depthwise: 3cc55ed1
FeatureExtractor/MobilenetV1/MobilenetV1/Conv2d_12_depthwise/BatchNorm/FusedBatchNorm: 3dc26911
FeatureExtractor/MobilenetV1/MobilenetV1/Conv2d_12_depthwise/Relu6: 3d418306
FeatureExtractor/MobilenetV1/MobilenetV1/Conv2d_12_pointwise/Conv2D: 3da83d21
FeatureExtractor/MobilenetV1/MobilenetV1/Conv2d_12_pointwise/BatchNorm/FusedBatchNorm: 3d445290
FeatureExtractor/MobilenetV1/MobilenetV1/Conv2d_12_pointwise/Relu6: 3d418306
FeatureExtractor/MobilenetV1/MobilenetV1/Conv2d_13_depthwise/depthwise: 3ca0c72e
FeatureExtractor/MobilenetV1/MobilenetV1/Conv2d_13_depthwise/BatchNorm/FusedBatchNorm: 3d8eaaf8
FeatureExtractor/MobilenetV1/MobilenetV1/Conv2d_13_depthwise/Relu6: 3d418306
FeatureExtractor/MobilenetV1/MobilenetV1/Conv2d_13_pointwise/Conv2D: 3de30474
FeatureExtractor/MobilenetV1/MobilenetV1/Conv2d_13_pointwise/BatchNorm/FusedBatchNorm: 3d69e2f3
FeatureExtractor/MobilenetV1/MobilenetV1/Conv2d_13_pointwise/Relu6: 3d418306
BoxPredictor_1/BoxEncodingPredictor/Conv2D: 3d207955
BoxPredictor_1/BoxEncodingPredictor/BiasAdd: 3d0f1e2b
FeatureExtractor/MobilenetV1/Conv2d_13_pointwise_1_Conv2d_2_1x1_256/Conv2D: 3de42852
FeatureExtractor/MobilenetV1/Conv2d_13_pointwise_1_Conv2d_2_1x1_256/BatchNorm/FusedBatchNorm: 3d8256c2
FeatureExtractor/MobilenetV1/Conv2d_13_pointwise_1_Conv2d_2_1x1_256/Relu6: 3d418306
FeatureExtractor/MobilenetV1/Conv2d_13_pointwise_2_Conv2d_2_3x3_s2_512_depthwise/depthwise: 3cb9e837
FeatureExtractor/MobilenetV1/Conv2d_13_pointwise_2_Conv2d_2_3x3_s2_512_depthwise/BatchNorm/FusedBatchNorm: 3db3c172
FeatureExtractor/MobilenetV1/Conv2d_13_pointwise_2_Conv2d_2_3x3_s2_512_depthwise/Relu6: 3d418306
FeatureExtractor/MobilenetV1/Conv2d_13_pointwise_2_Conv2d_2_3x3_s2_512/Conv2D: 3d149e8c
FeatureExtractor/MobilenetV1/Conv2d_13_pointwise_2_Conv2d_2_3x3_s2_512/BatchNorm/FusedBatchNorm: 3d913fa2
FeatureExtractor/MobilenetV1/Conv2d_13_pointwise_2_Conv2d_2_3x3_s2_512/Relu6: 3d418306
BoxPredictor_2/BoxEncodingPredictor/Conv2D: 3cf61b96
BoxPredictor_2/BoxEncodingPredictor/BiasAdd: 3cddd18f
FeatureExtractor/MobilenetV1/Conv2d_13_pointwise_1_Conv2d_3_1x1_128/Conv2D: 3d761388
FeatureExtractor/MobilenetV1/Conv2d_13_pointwise_1_Conv2d_3_1x1_128/BatchNorm/FusedBatchNorm: 3d4be22c
FeatureExtractor/MobilenetV1/Conv2d_13_pointwise_1_Conv2d_3_1x1_128/Relu6: 3d418306
FeatureExtractor/MobilenetV1/Conv2d_13_pointwise_2_Conv2d_3_3x3_s2_256_depthwise/depthwise: 3c8e6686
FeatureExtractor/MobilenetV1/Conv2d_13_pointwise_2_Conv2d_3_3x3_s2_256_depthwise/BatchNorm/FusedBatchNorm: 3d46ce1d
FeatureExtractor/MobilenetV1/Conv2d_13_pointwise_2_Conv2d_3_3x3_s2_256_depthwise/Relu6: 3d418306
FeatureExtractor/MobilenetV1/Conv2d_13_pointwise_2_Conv2d_3_3x3_s2_256/Conv2D: 3ca1aea8
FeatureExtractor/MobilenetV1/Conv2d_13_pointwise_2_Conv2d_3_3x3_s2_256/BatchNorm/FusedBatchNorm: 3d575589
FeatureExtractor/MobilenetV1/Conv2d_13_pointwise_2_Conv2d_3_3x3_s2_256/Relu6: 3d418306
BoxPredictor_3/BoxEncodingPredictor/Conv2D: 3cc08fde
BoxPredictor_3/BoxEncodingPredictor/BiasAdd: 3cd814c1
FeatureExtractor/MobilenetV1/Conv2d_13_pointwise_1_Conv2d_4_1x1_128/Conv2D: 3cebd8fa
FeatureExtractor/MobilenetV1/Conv2d_13_pointwise_1_Conv2d_4_1x1_128/BatchNorm/FusedBatchNorm: 3d332431
FeatureExtractor/MobilenetV1/Conv2d_13_pointwise_1_Conv2d_4_1x1_128/Relu6: 3d418306
FeatureExtractor/MobilenetV1/Conv2d_13_pointwise_2_Conv2d_4_3x3_s2_256_depthwise/depthwise: 3c03a7e9
FeatureExtractor/MobilenetV1/Conv2d_13_pointwise_2_Conv2d_4_3x3_s2_256_depthwise/BatchNorm/FusedBatchNorm: 3d309c21
FeatureExtractor/MobilenetV1/Conv2d_13_pointwise_2_Conv2d_4_3x3_s2_256_depthwise/Relu6: 3d418306
FeatureExtractor/MobilenetV1/Conv2d_13_pointwise_2_Conv2d_4_3x3_s2_256/Conv2D: 3c28beaa
FeatureExtractor/MobilenetV1/Conv2d_13_pointwise_2_Conv2d_4_3x3_s2_256/BatchNorm/FusedBatchNorm: 3d41808c
FeatureExtractor/MobilenetV1/Conv2d_13_pointwise_2_Conv2d_4_3x3_s2_256/Relu6: 3d418306
BoxPredictor_4/BoxEncodingPredictor/Conv2D: 3caf95a6
BoxPredictor_4/BoxEncodingPredictor/BiasAdd: 3cb1dfb9
FeatureExtractor/MobilenetV1/Conv2d_13_pointwise_1_Conv2d_5_1x1_64/Conv2D: 3c69f8d6
FeatureExtractor/MobilenetV1/Conv2d_13_pointwise_1_Conv2d_5_1x1_64/BatchNorm/FusedBatchNorm: 3d15b030
FeatureExtractor/MobilenetV1/Conv2d_13_pointwise_1_Conv2d_5_1x1_64/Relu6: 3d418306
FeatureExtractor/MobilenetV1/Conv2d_13_pointwise_2_Conv2d_5_3x3_s2_128_depthwise/depthwise: 3b9b8aaf
FeatureExtractor/MobilenetV1/Conv2d_13_pointwise_2_Conv2d_5_3x3_s2_128_depthwise/BatchNorm/FusedBatchNorm: 3cb405ca
FeatureExtractor/MobilenetV1/Conv2d_13_pointwise_2_Conv2d_5_3x3_s2_128_depthwise/Relu6: 3d418306
FeatureExtractor/MobilenetV1/Conv2d_13_pointwise_2_Conv2d_5_3x3_s2_128/Conv2D: 3c393174
FeatureExtractor/MobilenetV1/Conv2d_13_pointwise_2_Conv2d_5_3x3_s2_128/BatchNorm/FusedBatchNorm: 3d929976
FeatureExtractor/MobilenetV1/Conv2d_13_pointwise_2_Conv2d_5_3x3_s2_128/Relu6: 3d418306
BoxPredictor_5/BoxEncodingPredictor/Conv2D: 3cb48f70
BoxPredictor_5/BoxEncodingPredictor/BiasAdd: 3cae88d6
BoxPredictor_0/ClassPredictor/Conv2D: 3ec0b344
BoxPredictor_0/ClassPredictor/BiasAdd: 3ec0658a
BoxPredictor_1/ClassPredictor/Conv2D: 3efb7ba1
BoxPredictor_1/ClassPredictor/BiasAdd: 3f013098
BoxPredictor_2/ClassPredictor/Conv2D: 3e938e07
BoxPredictor_2/ClassPredictor/BiasAdd: 3e93bdb3
BoxPredictor_3/ClassPredictor/Conv2D: 3e051a78
BoxPredictor_3/ClassPredictor/BiasAdd: 3e094657
BoxPredictor_4/ClassPredictor/Conv2D: 3dbbf963
BoxPredictor_4/ClassPredictor/BiasAdd: 3dc46b60
BoxPredictor_5/ClassPredictor/Conv2D: 3dbfd431
BoxPredictor_5/ClassPredictor/BiasAdd: 3dbbf203
Postprocessor: 3c010a14
