TRT-6001-EntropyCalibration2
Input: 3c010204
Const: 3c010a14
MultipleGridAnchorGenerator: 3a4fb8dc
MultipleGridAnchorGenerator_1: 3a4fb8dc
MultipleGridAnchorGenerator_2: 3a4fb8dc
MultipleGridAnchorGenerator_3: 3a4fb8dc
MultipleGridAnchorGenerator_4: 3a4fb8dc
MultipleGridAnchorGenerator_5: 3a4fb8dc
concat_priorbox: 3a4fb8dc
FeatureExtractor/MobilenetV1/MobilenetV1/Conv2d_0/Conv2D: 3d7c1e58
FeatureExtractor/MobilenetV1/MobilenetV1/Conv2d_0/BatchNorm/FusedBatchNorm: 3dcfe033
FeatureExtractor/MobilenetV1/MobilenetV1/Conv2d_0/Relu6: 3d418306
FeatureExtractor/MobilenetV1/MobilenetV1/Conv2d_1_depthwise/depthwise: 3dcd889f
FeatureExtractor/MobilenetV1/MobilenetV1/Conv2d_1_depthwise/BatchNorm/FusedBatchNorm: 3dfa9672
FeatureExtractor/MobilenetV1/MobilenetV1/Conv2d_1_depthwise/Relu6: 3d418306
FeatureExtractor/MobilenetV1/MobilenetV1/Conv2d_1_pointwise/Conv2D: 3e2baf8f
FeatureExtractor/MobilenetV1/MobilenetV1/Conv2d_1_pointwise/BatchNorm/FusedBatchNorm: 3e133cd9
FeatureExtractor/MobilenetV1/MobilenetV1/Conv2d_1_pointwise/Relu6: 3d418306
FeatureExtractor/MobilenetV1/MobilenetV1/Conv2d_2_depthwise/depthwise: 3dceccd8
FeatureExtractor/MobilenetV1/MobilenetV1/Conv2d_2_depthwise/BatchNorm/FusedBatchNorm: 3de50764
FeatureExtractor/MobilenetV1/MobilenetV1/Conv2d_2_depthwise/Relu6: 3d418306
FeatureExtractor/MobilenetV1/MobilenetV1/Conv2d_2_pointwise/Conv2D: 3de141b7
FeatureExtractor/MobilenetV1/MobilenetV1/Conv2d_2_pointwise/BatchNorm/FusedBatchNorm: 3da4ebf7
FeatureExtractor/MobilenetV1/MobilenetV1/Conv2d_2_pointwise/Relu6: 3d418306
FeatureExtractor/MobilenetV1/MobilenetV1/Conv2d_3_depthwise/depthwise: 3d4fad81
FeatureExtractor/MobilenetV1/MobilenetV1/Conv2d_3_depthwise/BatchNorm/FusedBatchNorm: 3d8ccdff
FeatureExtractor/MobilenetV1/MobilenetV1/Conv2d_3_depthwise/Relu6: 3d418306
FeatureExtractor/MobilenetV1/MobilenetV1/Conv2d_3_pointwise/Conv2D: 3dc20afc
FeatureExtractor/MobilenetV1/MobilenetV1/Conv2d_3_pointwise/BatchNorm/FusedBatchNorm: 3d8f592f
FeatureExtractor/MobilenetV1/MobilenetV1/Conv2d_3_pointwise/Relu6: 3d418306
FeatureExtractor/MobilenetV1/MobilenetV1/Conv2d_4_depthwise/depthwise: 3d3dde43
FeatureExtractor/MobilenetV1/MobilenetV1/Conv2d_4_depthwise/BatchNorm/FusedBatchNorm: 3d5cfff2
FeatureExtractor/MobilenetV1/MobilenetV1/Conv2d_4_depthwise/Relu6: 3d418306
FeatureExtractor/MobilenetV1/MobilenetV1/Conv2d_4_pointwise/Conv2D: 3d904983
FeatureExtractor/MobilenetV1/MobilenetV1/Conv2d_4_pointwise/BatchNorm/FusedBatchNorm: 3d7e9397
FeatureExtractor/MobilenetV1/MobilenetV1/Conv2d_4_pointwise/Relu6: 3d418306
FeatureExtractor/MobilenetV1/MobilenetV1/Conv2d_5_depthwise/depthwise: 3d164881
FeatureExtractor/MobilenetV1/MobilenetV1/Conv2d_5_depthwise/BatchNorm/FusedBatchNorm: 3d8c60db
FeatureExtractor/MobilenetV1/MobilenetV1/Conv2d_5_depthwise/Relu6: 3d418306
FeatureExtractor/MobilenetV1/MobilenetV1/Conv2d_5_pointwise/Conv2D: 3d8d3795
FeatureExtractor/MobilenetV1/MobilenetV1/Conv2d_5_pointwise/BatchNorm/FusedBatchNorm: 3d5000a6
FeatureExtractor/MobilenetV1/MobilenetV1/Conv2d_5_pointwise/Relu6: 3d418306
FeatureExtractor/MobilenetV1/MobilenetV1/Conv2d_6_depthwise/depthwise: 3d180405
FeatureExtractor/MobilenetV1/MobilenetV1/Conv2d_6_depthwise/BatchNorm/FusedBatchNorm: 3d95dbd3
FeatureExtractor/MobilenetV1/MobilenetV1/Conv2d_6_depthwise/Relu6: 3d418306
FeatureExtractor/MobilenetV1/MobilenetV1/Conv2d_6_pointwise/Conv2D: 3d89617d
FeatureExtractor/MobilenetV1/MobilenetV1/Conv2d_6_pointwise/BatchNorm/FusedBatchNorm: 3d50b43a
FeatureExtractor/MobilenetV1/MobilenetV1/Conv2d_6_pointwise/Relu6: 3d418306
FeatureExtractor/MobilenetV1/MobilenetV1/Conv2d_7_depthwise/depthwise: 3ce532d7
FeatureExtractor/MobilenetV1/MobilenetV1/Conv2d_7_depthwise/BatchNorm/FusedBatchNorm: 3da41f60
FeatureExtractor/MobilenetV1/MobilenetV1/Conv2d_7_depthwise/Relu6: 3d418306
FeatureExtractor/MobilenetV1/MobilenetV1/Conv2d_7_pointwise/Conv2D: 3d9b6260
FeatureExtractor/MobilenetV1/MobilenetV1/Conv2d_7_pointwise/BatchNorm/FusedBatchNorm: 3d444c17
FeatureExtractor/MobilenetV1/MobilenetV1/Conv2d_7_pointwise/Relu6: 3d418306
FeatureExtractor/MobilenetV1/MobilenetV1/Conv2d_8_depthwise/depthwise: 3cb3190b
FeatureExtractor/MobilenetV1/MobilenetV1/Conv2d_8_depthwise/BatchNorm/FusedBatchNorm: 3d8b8a0a
FeatureExtractor/MobilenetV1/MobilenetV1/Conv2d_8_depthwise/Relu6: 3d418306
FeatureExtractor/MobilenetV1/MobilenetV1/Conv2d_8_pointwise/Conv2D: 3d95c975
FeatureExtractor/MobilenetV1/MobilenetV1/Conv2d_8_pointwise/BatchNorm/FusedBatchNorm: 3d331cfb
FeatureExtractor/MobilenetV1/MobilenetV1/Conv2d_8_pointwise/Relu6: 3d418306
FeatureExtractor/MobilenetV1/MobilenetV1/Conv2d_9_depthwise/depthwise: 3cc9b4f2
FeatureExtractor/MobilenetV1/MobilenetV1/Conv2d_9_depthwise/BatchNorm/FusedBatchNorm: 3d8c7375
FeatureExtractor/MobilenetV1/MobilenetV1/Conv2d_9_depthwise/Relu6: 3d418306
FeatureExtractor/MobilenetV1/MobilenetV1/Conv2d_9_pointwise/Conv2D: 3d8accbb
FeatureExtractor/MobilenetV1/MobilenetV1/Conv2d_9_pointwise/BatchNorm/FusedBatchNorm: 3d3e5573
FeatureExtractor/MobilenetV1/MobilenetV1/Conv2d_9_pointwise/Relu6: 3d418306
FeatureExtractor/MobilenetV1/MobilenetV1/Conv2d_10_depthwise/depthwise: 3cc0ce2d
FeatureExtractor/MobilenetV1/MobilenetV1/Conv2d_10_depthwise/BatchNorm/FusedBatchNorm: 3d7f4b9b
FeatureExtractor/MobilenetV1/MobilenetV1/Conv2d_10_depthwise/Relu6: 3d418306
FeatureExtractor/MobilenetV1/MobilenetV1/Conv2d_10_pointwise/Conv2D: 3d9e7a68
FeatureExtractor/MobilenetV1/MobilenetV1/Conv2d_10_pointwise/BatchNorm/FusedBatchNorm: 3d7404ad
FeatureExtractor/MobilenetV1/MobilenetV1/Conv2d_10_pointwise/Relu6: 3d418306
FeatureExtractor/MobilenetV1/MobilenetV1/Conv2d_11_depthwise/depthwise: 3cc8ba63
FeatureExtractor/MobilenetV1/MobilenetV1/Conv2d_11_depthwise/BatchNorm/FusedBatchNorm: 3da74871
FeatureExtractor/MobilenetV1/MobilenetV1/Conv2d_11_depthwise/Relu6: 3d418306
FeatureExtractor/MobilenetV1/MobilenetV1/Conv2d_11_pointwise/Conv2D: 3e04e510
FeatureExtractor/MobilenetV1/MobilenetV1/Conv2d_11_pointwise/BatchNorm/FusedBatchNorm: 3d73ca73
FeatureExtractor/MobilenetV1/MobilenetV1/Conv2d_11_pointwise/Relu6: 3d418306
BoxPredictor_0/BoxEncodingPredictor/Conv2D: 3e9b2298
BoxPredictor_0/BoxEncodingPredictor/BiasAdd: 3e9c7f02
FeatureExtractor/MobilenetV1/MobilenetV1/Conv2d_12_depthwise/depthwise: 3c965356
FeatureExtractor/MobilenetV1/MobilenetV1/Conv2d_12_depthwise/BatchNorm/FusedBatchNorm: 3db9e17a
FeatureExtractor/MobilenetV1/MobilenetV1/Conv2d_12_depthwise/Relu6: 3d418306
FeatureExtractor/MobilenetV1/MobilenetV1/Conv2d_12_pointwise/Conv2D: 3da81403
FeatureExtractor/MobilenetV1/MobilenetV1/Conv2d_12_pointwise/BatchNorm/FusedBatchNorm: 3da1da89
FeatureExtractor/MobilenetV1/MobilenetV1/Conv2d_12_pointwise/Relu6: 3d418306
FeatureExtractor/MobilenetV1/MobilenetV1/Conv2d_13_depthwise/depthwise: 3c7787d3
FeatureExtractor/MobilenetV1/MobilenetV1/Conv2d_13_depthwise/BatchNorm/FusedBatchNorm: 3d9ad311
FeatureExtractor/MobilenetV1/MobilenetV1/Conv2d_13_depthwise/Relu6: 3d418306
FeatureExtractor/MobilenetV1/MobilenetV1/Conv2d_13_pointwise/Conv2D: 3df4b026
FeatureExtractor/MobilenetV1/MobilenetV1/Conv2d_13_pointwise/BatchNorm/FusedBatchNorm: 3d714c59
FeatureExtractor/MobilenetV1/MobilenetV1/Conv2d_13_pointwise/Relu6: 3d418306
BoxPredictor_1/BoxEncodingPredictor/Conv2D: 3d7e99ac
BoxPredictor_1/BoxEncodingPredictor/BiasAdd: 3d86608e
FeatureExtractor/MobilenetV1/Conv2d_13_pointwise_1_Conv2d_2_1x1_256/Conv2D: 3e0aa36c
FeatureExtractor/MobilenetV1/Conv2d_13_pointwise_1_Conv2d_2_1x1_256/BatchNorm/FusedBatchNorm: 3d801d06
FeatureExtractor/MobilenetV1/Conv2d_13_pointwise_1_Conv2d_2_1x1_256/Relu6: 3d418306
FeatureExtractor/MobilenetV1/Conv2d_13_pointwise_2_Conv2d_2_3x3_s2_512_depthwise/depthwise: 3c20f61f
FeatureExtractor/MobilenetV1/Conv2d_13_pointwise_2_Conv2d_2_3x3_s2_512_depthwise/BatchNorm/FusedBatchNorm: 3da56d09
FeatureExtractor/MobilenetV1/Conv2d_13_pointwise_2_Conv2d_2_3x3_s2_512_depthwise/Relu6: 3d418306
FeatureExtractor/MobilenetV1/Conv2d_13_pointwise_2_Conv2d_2_3x3_s2_512/Conv2D: 3cc0fb2b
FeatureExtractor/MobilenetV1/Conv2d_13_pointwise_2_Conv2d_2_3x3_s2_512/BatchNorm/FusedBatchNorm: 3d300d99
FeatureExtractor/MobilenetV1/Conv2d_13_pointwise_2_Conv2d_2_3x3_s2_512/Relu6: 3d418306
BoxPredictor_2/BoxEncodingPredictor/Conv2D: 3ce8914f
BoxPredictor_2/BoxEncodingPredictor/BiasAdd: 3cf39630
FeatureExtractor/MobilenetV1/Conv2d_13_pointwise_1_Conv2d_3_1x1_128/Conv2D: 3d55751c
FeatureExtractor/MobilenetV1/Conv2d_13_pointwise_1_Conv2d_3_1x1_128/BatchNorm/FusedBatchNorm: 3d1325f6
FeatureExtractor/MobilenetV1/Conv2d_13_pointwise_1_Conv2d_3_1x1_128/Relu6: 3d418306
FeatureExtractor/MobilenetV1/Conv2d_13_pointwise_2_Conv2d_3_3x3_s2_256_depthwise/depthwise: 3c3da624
FeatureExtractor/MobilenetV1/Conv2d_13_pointwise_2_Conv2d_3_3x3_s2_256_depthwise/BatchNorm/FusedBatchNorm: 3d3f6a73
FeatureExtractor/MobilenetV1/Conv2d_13_pointwise_2_Conv2d_3_3x3_s2_256_depthwise/Relu6: 3d418306
FeatureExtractor/MobilenetV1/Conv2d_13_pointwise_2_Conv2d_3_3x3_s2_256/Conv2D: 3c5038af
FeatureExtractor/MobilenetV1/Conv2d_13_pointwise_2_Conv2d_3_3x3_s2_256/BatchNorm/FusedBatchNorm: 3d53a5f0
FeatureExtractor/MobilenetV1/Conv2d_13_pointwise_2_Conv2d_3_3x3_s2_256/Relu6: 3d418306
BoxPredictor_3/BoxEncodingPredictor/Conv2D: 3ce273ce
BoxPredictor_3/BoxEncodingPredictor/BiasAdd: 3ce36c04
FeatureExtractor/MobilenetV1/Conv2d_13_pointwise_1_Conv2d_4_1x1_128/Conv2D: 3cc3c996
FeatureExtractor/MobilenetV1/Conv2d_13_pointwise_1_Conv2d_4_1x1_128/BatchNorm/FusedBatchNorm: 3d3861e0
FeatureExtractor/MobilenetV1/Conv2d_13_pointwise_1_Conv2d_4_1x1_128/Relu6: 3d418306
FeatureExtractor/MobilenetV1/Conv2d_13_pointwise_2_Conv2d_4_3x3_s2_256_depthwise/depthwise: 3bfc38aa
FeatureExtractor/MobilenetV1/Conv2d_13_pointwise_2_Conv2d_4_3x3_s2_256_depthwise/BatchNorm/FusedBatchNorm: 3d044755
FeatureExtractor/MobilenetV1/Conv2d_13_pointwise_2_Conv2d_4_3x3_s2_256_depthwise/Relu6: 3d418306
FeatureExtractor/MobilenetV1/Conv2d_13_pointwise_2_Conv2d_4_3x3_s2_256/Conv2D: 3c0cfa57
FeatureExtractor/MobilenetV1/Conv2d_13_pointwise_2_Conv2d_4_3x3_s2_256/BatchNorm/FusedBatchNorm: 3d296e0c
FeatureExtractor/MobilenetV1/Conv2d_13_pointwise_2_Conv2d_4_3x3_s2_256/Relu6: 3d418306
BoxPredictor_4/BoxEncodingPredictor/Conv2D: 3cc48982
BoxPredictor_4/BoxEncodingPredictor/BiasAdd: 3cc98561
FeatureExtractor/MobilenetV1/Conv2d_13_pointwise_1_Conv2d_5_1x1_64/Conv2D: 3cc02d8e
FeatureExtractor/MobilenetV1/Conv2d_13_pointwise_1_Conv2d_5_1x1_64/BatchNorm/FusedBatchNorm: 3d18c44c
FeatureExtractor/MobilenetV1/Conv2d_13_pointwise_1_Conv2d_5_1x1_64/Relu6: 3d418306
FeatureExtractor/MobilenetV1/Conv2d_13_pointwise_2_Conv2d_5_3x3_s2_128_depthwise/depthwise: 3be90995
FeatureExtractor/MobilenetV1/Conv2d_13_pointwise_2_Conv2d_5_3x3_s2_128_depthwise/BatchNorm/FusedBatchNorm: 3ccb330c
FeatureExtractor/MobilenetV1/Conv2d_13_pointwise_2_Conv2d_5_3x3_s2_128_depthwise/Relu6: 3d418306
FeatureExtractor/MobilenetV1/Conv2d_13_pointwise_2_Conv2d_5_3x3_s2_128/Conv2D: 3c3add98
FeatureExtractor/MobilenetV1/Conv2d_13_pointwise_2_Conv2d_5_3x3_s2_128/BatchNorm/FusedBatchNorm: 3d553e59
FeatureExtractor/MobilenetV1/Conv2d_13_pointwise_2_Conv2d_5_3x3_s2_128/Relu6: 3d418306
BoxPredictor_5/BoxEncodingPredictor/Conv2D: 3c4aa763
BoxPredictor_5/BoxEncodingPredictor/BiasAdd: 3c50081d
BoxPredictor_0/ClassPredictor/Conv2D: 3fb4e758
BoxPredictor_0/ClassPredictor/BiasAdd: 3fb0b110
BoxPredictor_1/ClassPredictor/Conv2D: 3fa9aa49
BoxPredictor_1/ClassPredictor/BiasAdd: 3f9db9f5
BoxPredictor_2/ClassPredictor/Conv2D: 3e7ff838
BoxPredictor_2/ClassPredictor/BiasAdd: 3e8592e5
BoxPredictor_3/ClassPredictor/Conv2D: 3e1a3413
BoxPredictor_3/ClassPredictor/BiasAdd: 3e1aa53f
BoxPredictor_4/ClassPredictor/Conv2D: 3dc0a2f3
BoxPredictor_4/ClassPredictor/BiasAdd: 3dca376e
BoxPredictor_5/ClassPredictor/Conv2D: 3dacf1e7
BoxPredictor_5/ClassPredictor/BiasAdd: 3dacca2d
Postprocessor: 3c010a14
