TRT-6001-EntropyCalibration2
Input: 3c010204
Const: 3c010a14
MultipleGridAnchorGenerator: 3a4fb8dc
MultipleGridAnchorGenerator_1: 3a4fb8dc
MultipleGridAnchorGenerator_2: 3a4fb8dc
MultipleGridAnchorGenerator_3: 3a4fb8dc
MultipleGridAnchorGenerator_4: 3a4fb8dc
MultipleGridAnchorGenerator_5: 3a4fb8dc
concat_priorbox: 3a4fb8dc
FeatureExtractor/MobilenetV2/Conv/Conv2D: 3d9d7cf4
FeatureExtractor/MobilenetV2/Conv/BatchNorm/FusedBatchNorm: 3da875a4
FeatureExtractor/MobilenetV2/Conv/Relu6: 3d418306
FeatureExtractor/MobilenetV2/expanded_conv/depthwise/depthwise: 3dc4f5ef
FeatureExtractor/MobilenetV2/expanded_conv/depthwise/BatchNorm/FusedBatchNorm: 3d992e1b
FeatureExtractor/MobilenetV2/expanded_conv/depthwise/Relu6: 3d418306
FeatureExtractor/MobilenetV2/expanded_conv/project/Conv2D: 3e009d3c
FeatureExtractor/MobilenetV2/expanded_conv/project/BatchNorm/FusedBatchNorm: 3dc9e032
FeatureExtractor/MobilenetV2/expanded_conv_1/expand/Conv2D: 3e0280b9
FeatureExtractor/MobilenetV2/expanded_conv_1/expand/BatchNorm/FusedBatchNorm: 3dbc5a38
FeatureExtractor/MobilenetV2/expanded_conv_1/expand/Relu6: 3d418306
FeatureExtractor/MobilenetV2/expanded_conv_1/depthwise/depthwise: 3d6d000b
FeatureExtractor/MobilenetV2/expanded_conv_1/depthwise/BatchNorm/FusedBatchNorm: 3dacbf8b
FeatureExtractor/MobilenetV2/expanded_conv_1/depthwise/Relu6: 3d418306
FeatureExtractor/MobilenetV2/expanded_conv_1/project/Conv2D: 3e04e875
FeatureExtractor/MobilenetV2/expanded_conv_1/project/BatchNorm/FusedBatchNorm: 3db5f798
FeatureExtractor/MobilenetV2/expanded_conv_2/expand/Conv2D: 3de750a4
FeatureExtractor/MobilenetV2/expanded_conv_2/expand/BatchNorm/FusedBatchNorm: 3d9c1f77
FeatureExtractor/MobilenetV2/expanded_conv_2/expand/Relu6: 3d418306
FeatureExtractor/MobilenetV2/expanded_conv_2/depthwise/depthwise: 3d432465
FeatureExtractor/MobilenetV2/expanded_conv_2/depthwise/BatchNorm/FusedBatchNorm: 3da0ad1b
FeatureExtractor/MobilenetV2/expanded_conv_2/depthwise/Relu6: 3d418306
FeatureExtractor/MobilenetV2/expanded_conv_2/project/Conv2D: 3de0a5a3
FeatureExtractor/MobilenetV2/expanded_conv_2/project/BatchNorm/FusedBatchNorm: 3d995ab2
FeatureExtractor/MobilenetV2/expanded_conv_2/add: 3de4e041
FeatureExtractor/MobilenetV2/expanded_conv_3/expand/Conv2D: 3e0cfa5d
FeatureExtractor/MobilenetV2/expanded_conv_3/expand/BatchNorm/FusedBatchNorm: 3d9643ed
FeatureExtractor/MobilenetV2/expanded_conv_3/expand/Relu6: 3d418306
FeatureExtractor/MobilenetV2/expanded_conv_3/depthwise/depthwise: 3d7051de
FeatureExtractor/MobilenetV2/expanded_conv_3/depthwise/BatchNorm/FusedBatchNorm: 3d8e359a
FeatureExtractor/MobilenetV2/expanded_conv_3/depthwise/Relu6: 3d418306
FeatureExtractor/MobilenetV2/expanded_conv_3/project/Conv2D: 3dfa233d
FeatureExtractor/MobilenetV2/expanded_conv_3/project/BatchNorm/FusedBatchNorm: 3d91bfa9
FeatureExtractor/MobilenetV2/expanded_conv_4/expand/Conv2D: 3d919e06
FeatureExtractor/MobilenetV2/expanded_conv_4/expand/BatchNorm/FusedBatchNorm: 3d7c0938
FeatureExtractor/MobilenetV2/expanded_conv_4/expand/Relu6: 3d418306
FeatureExtractor/MobilenetV2/expanded_conv_4/depthwise/depthwise: 3d0a17e8
FeatureExtractor/MobilenetV2/expanded_conv_4/depthwise/BatchNorm/FusedBatchNorm: 3d60b9ff
FeatureExtractor/MobilenetV2/expanded_conv_4/depthwise/Relu6: 3d418306
FeatureExtractor/MobilenetV2/expanded_conv_4/project/Conv2D: 3dbe8158
FeatureExtractor/MobilenetV2/expanded_conv_4/project/BatchNorm/FusedBatchNorm: 3d68ba53
FeatureExtractor/MobilenetV2/expanded_conv_4/add: 3daf96b8
FeatureExtractor/MobilenetV2/expanded_conv_5/expand/Conv2D: 3db26a91
FeatureExtractor/MobilenetV2/expanded_conv_5/expand/BatchNorm/FusedBatchNorm: 3d7570fe
FeatureExtractor/MobilenetV2/expanded_conv_5/expand/Relu6: 3d418306
FeatureExtractor/MobilenetV2/expanded_conv_5/depthwise/depthwise: 3cead259
FeatureExtractor/MobilenetV2/expanded_conv_5/depthwise/BatchNorm/FusedBatchNorm: 3d8321fd
FeatureExtractor/MobilenetV2/expanded_conv_5/depthwise/Relu6: 3d418306
FeatureExtractor/MobilenetV2/expanded_conv_5/project/Conv2D: 3d94559b
FeatureExtractor/MobilenetV2/expanded_conv_5/project/BatchNorm/FusedBatchNorm: 3d9364f6
FeatureExtractor/MobilenetV2/expanded_conv_5/add: 3dea2d05
FeatureExtractor/MobilenetV2/expanded_conv_6/expand/Conv2D: 3e087ce6
FeatureExtractor/MobilenetV2/expanded_conv_6/expand/BatchNorm/FusedBatchNorm: 3d60afcd
FeatureExtractor/MobilenetV2/expanded_conv_6/expand/Relu6: 3d418306
FeatureExtractor/MobilenetV2/expanded_conv_6/depthwise/depthwise: 3d0b7d36
FeatureExtractor/MobilenetV2/expanded_conv_6/depthwise/BatchNorm/FusedBatchNorm: 3d5964e5
FeatureExtractor/MobilenetV2/expanded_conv_6/depthwise/Relu6: 3d418306
FeatureExtractor/MobilenetV2/expanded_conv_6/project/Conv2D: 3db65bbd
FeatureExtractor/MobilenetV2/expanded_conv_6/project/BatchNorm/FusedBatchNorm: 3d588fcc
FeatureExtractor/MobilenetV2/expanded_conv_7/expand/Conv2D: 3d73d735
FeatureExtractor/MobilenetV2/expanded_conv_7/expand/BatchNorm/FusedBatchNorm: 3d56517b
FeatureExtractor/MobilenetV2/expanded_conv_7/expand/Relu6: 3d418306
FeatureExtractor/MobilenetV2/expanded_conv_7/depthwise/depthwise: 3cd91bea
FeatureExtractor/MobilenetV2/expanded_conv_7/depthwise/BatchNorm/FusedBatchNorm: 3d8bad6e
FeatureExtractor/MobilenetV2/expanded_conv_7/depthwise/Relu6: 3d418306
FeatureExtractor/MobilenetV2/expanded_conv_7/project/Conv2D: 3dd249e3
FeatureExtractor/MobilenetV2/expanded_conv_7/project/BatchNorm/FusedBatchNorm: 3d4cd002
FeatureExtractor/MobilenetV2/expanded_conv_7/add: 3d8853bc
FeatureExtractor/MobilenetV2/expanded_conv_8/expand/Conv2D: 3d8f7200
FeatureExtractor/MobilenetV2/expanded_conv_8/expand/BatchNorm/FusedBatchNorm: 3d4512ae
FeatureExtractor/MobilenetV2/expanded_conv_8/expand/Relu6: 3d418306
FeatureExtractor/MobilenetV2/expanded_conv_8/depthwise/depthwise: 3cc8eadd
FeatureExtractor/MobilenetV2/expanded_conv_8/depthwise/BatchNorm/FusedBatchNorm: 3d946569
FeatureExtractor/MobilenetV2/expanded_conv_8/depthwise/Relu6: 3d418306
FeatureExtractor/MobilenetV2/expanded_conv_8/project/Conv2D: 3d8cb73b
FeatureExtractor/MobilenetV2/expanded_conv_8/project/BatchNorm/FusedBatchNorm: 3d467151
FeatureExtractor/MobilenetV2/expanded_conv_8/add: 3da0779c
FeatureExtractor/MobilenetV2/expanded_conv_9/expand/Conv2D: 3d99e6cc
FeatureExtractor/MobilenetV2/expanded_conv_9/expand/BatchNorm/FusedBatchNorm: 3d3eeef3
FeatureExtractor/MobilenetV2/expanded_conv_9/expand/Relu6: 3d418306
FeatureExtractor/MobilenetV2/expanded_conv_9/depthwise/depthwise: 3ca9891d
FeatureExtractor/MobilenetV2/expanded_conv_9/depthwise/BatchNorm/FusedBatchNorm: 3d7b69cc
FeatureExtractor/MobilenetV2/expanded_conv_9/depthwise/Relu6: 3d418306
FeatureExtractor/MobilenetV2/expanded_conv_9/project/Conv2D: 3d7ae0e2
FeatureExtractor/MobilenetV2/expanded_conv_9/project/BatchNorm/FusedBatchNorm: 3d5e48fa
FeatureExtractor/MobilenetV2/expanded_conv_9/add: 3dd36fdc
FeatureExtractor/MobilenetV2/expanded_conv_10/expand/Conv2D: 3e0262a5
FeatureExtractor/MobilenetV2/expanded_conv_10/expand/BatchNorm/FusedBatchNorm: 3d44e2b2
FeatureExtractor/MobilenetV2/expanded_conv_10/expand/Relu6: 3d418306
FeatureExtractor/MobilenetV2/expanded_conv_10/depthwise/depthwise: 3ccbecdd
FeatureExtractor/MobilenetV2/expanded_conv_10/depthwise/BatchNorm/FusedBatchNorm: 3d812b6c
FeatureExtractor/MobilenetV2/expanded_conv_10/depthwise/Relu6: 3d418306
FeatureExtractor/MobilenetV2/expanded_conv_10/project/Conv2D: 3dc12359
FeatureExtractor/MobilenetV2/expanded_conv_10/project/BatchNorm/FusedBatchNorm: 3d21ccfa
FeatureExtractor/MobilenetV2/expanded_conv_11/expand/Conv2D: 3d3205e5
FeatureExtractor/MobilenetV2/expanded_conv_11/expand/BatchNorm/FusedBatchNorm: 3d4071ec
FeatureExtractor/MobilenetV2/expanded_conv_11/expand/Relu6: 3d418306
FeatureExtractor/MobilenetV2/expanded_conv_11/depthwise/depthwise: 3c999a4a
FeatureExtractor/MobilenetV2/expanded_conv_11/depthwise/BatchNorm/FusedBatchNorm: 3d84f5c6
FeatureExtractor/MobilenetV2/expanded_conv_11/depthwise/Relu6: 3d418306
FeatureExtractor/MobilenetV2/expanded_conv_11/project/Conv2D: 3dcedaaa
FeatureExtractor/MobilenetV2/expanded_conv_11/project/BatchNorm/FusedBatchNorm: 3d54c71a
FeatureExtractor/MobilenetV2/expanded_conv_11/add: 3d86c926
FeatureExtractor/MobilenetV2/expanded_conv_12/expand/Conv2D: 3d9ad611
FeatureExtractor/MobilenetV2/expanded_conv_12/expand/BatchNorm/FusedBatchNorm: 3d35b88a
FeatureExtractor/MobilenetV2/expanded_conv_12/expand/Relu6: 3d418306
FeatureExtractor/MobilenetV2/expanded_conv_12/depthwise/depthwise: 3c91bd61
FeatureExtractor/MobilenetV2/expanded_conv_12/depthwise/BatchNorm/FusedBatchNorm: 3d5ef658
FeatureExtractor/MobilenetV2/expanded_conv_12/depthwise/Relu6: 3d418306
FeatureExtractor/MobilenetV2/expanded_conv_12/project/Conv2D: 3da2de53
FeatureExtractor/MobilenetV2/expanded_conv_12/project/BatchNorm/FusedBatchNorm: 3d51ad53
FeatureExtractor/MobilenetV2/expanded_conv_12/add: 3db311ef
FeatureExtractor/MobilenetV2/expanded_conv_13/expand/Conv2D: 3e125a15
FeatureExtractor/MobilenetV2/expanded_conv_13/expand/BatchNorm/FusedBatchNorm: 3d53b8da
FeatureExtractor/MobilenetV2/expanded_conv_13/expand/Relu6: 3d418306
BoxPredictor_0/BoxEncodingPredictor_depthwise/depthwise: 3c63b7a9
BoxPredictor_0/BoxEncodingPredictor_depthwise/BatchNorm/FusedBatchNorm: 3da8406b
BoxPredictor_0/BoxEncodingPredictor_depthwise/Relu6: 3d418306
BoxPredictor_0/BoxEncodingPredictor/Conv2D: 3e433761
BoxPredictor_0/BoxEncodingPredictor/BiasAdd: 3e3612e9
FeatureExtractor/MobilenetV2/expanded_conv_13/depthwise/depthwise: 3cbd060a
FeatureExtractor/MobilenetV2/expanded_conv_13/depthwise/BatchNorm/FusedBatchNorm: 3d875b18
FeatureExtractor/MobilenetV2/expanded_conv_13/depthwise/Relu6: 3d418306
FeatureExtractor/MobilenetV2/expanded_conv_13/project/Conv2D: 3df5f60a
FeatureExtractor/MobilenetV2/expanded_conv_13/project/BatchNorm/FusedBatchNorm: 3d6b96e4
FeatureExtractor/MobilenetV2/expanded_conv_14/expand/Conv2D: 3d626559
FeatureExtractor/MobilenetV2/expanded_conv_14/expand/BatchNorm/FusedBatchNorm: 3d5027c2
FeatureExtractor/MobilenetV2/expanded_conv_14/expand/Relu6: 3d418306
FeatureExtractor/MobilenetV2/expanded_conv_14/depthwise/depthwise: 3c7a7f11
FeatureExtractor/MobilenetV2/expanded_conv_14/depthwise/BatchNorm/FusedBatchNorm: 3d9a124d
FeatureExtractor/MobilenetV2/expanded_conv_14/depthwise/Relu6: 3d418306
FeatureExtractor/MobilenetV2/expanded_conv_14/project/Conv2D: 3dc4c2fe
FeatureExtractor/MobilenetV2/expanded_conv_14/project/BatchNorm/FusedBatchNorm: 3d3cdf5d
FeatureExtractor/MobilenetV2/expanded_conv_14/add: 3d9b3cd7
FeatureExtractor/MobilenetV2/expanded_conv_15/expand/Conv2D: 3d9e1d45
FeatureExtractor/MobilenetV2/expanded_conv_15/expand/BatchNorm/FusedBatchNorm: 3d3f033f
FeatureExtractor/MobilenetV2/expanded_conv_15/expand/Relu6: 3d418306
FeatureExtractor/MobilenetV2/expanded_conv_15/depthwise/depthwise: 3c584bf6
FeatureExtractor/MobilenetV2/expanded_conv_15/depthwise/BatchNorm/FusedBatchNorm: 3d8bc7ae
FeatureExtractor/MobilenetV2/expanded_conv_15/depthwise/Relu6: 3d418306
FeatureExtractor/MobilenetV2/expanded_conv_15/project/Conv2D: 3d9810a0
FeatureExtractor/MobilenetV2/expanded_conv_15/project/BatchNorm/FusedBatchNorm: 3d30e93d
FeatureExtractor/MobilenetV2/expanded_conv_15/add: 3dc98cbb
FeatureExtractor/MobilenetV2/expanded_conv_16/expand/Conv2D: 3decadd2
FeatureExtractor/MobilenetV2/expanded_conv_16/expand/BatchNorm/FusedBatchNorm: 3d400924
FeatureExtractor/MobilenetV2/expanded_conv_16/expand/Relu6: 3d418306
FeatureExtractor/MobilenetV2/expanded_conv_16/depthwise/depthwise: 3c7760dd
FeatureExtractor/MobilenetV2/expanded_conv_16/depthwise/BatchNorm/FusedBatchNorm: 3d9dbc50
FeatureExtractor/MobilenetV2/expanded_conv_16/depthwise/Relu6: 3d418306
FeatureExtractor/MobilenetV2/expanded_conv_16/project/Conv2D: 3dcb3436
FeatureExtractor/MobilenetV2/expanded_conv_16/project/BatchNorm/FusedBatchNorm: 3d37301e
FeatureExtractor/MobilenetV2/Conv_1/Conv2D: 3dd5c073
FeatureExtractor/MobilenetV2/Conv_1/BatchNorm/FusedBatchNorm: 3d3ba668
FeatureExtractor/MobilenetV2/Conv_1/Relu6: 3d418306
BoxPredictor_1/BoxEncodingPredictor_depthwise/depthwise: 3bc16658
BoxPredictor_1/BoxEncodingPredictor_depthwise/BatchNorm/FusedBatchNorm: 3d5d5141
BoxPredictor_1/BoxEncodingPredictor_depthwise/Relu6: 3d418306
BoxPredictor_1/BoxEncodingPredictor/Conv2D: 3d0a125c
BoxPredictor_1/BoxEncodingPredictor/BiasAdd: 3cf7181e
FeatureExtractor/MobilenetV2/layer_19_1_Conv2d_2_1x1_256/Conv2D: 3d9bf074
FeatureExtractor/MobilenetV2/layer_19_1_Conv2d_2_1x1_256/BatchNorm/FusedBatchNorm: 3d2b02ce
FeatureExtractor/MobilenetV2/layer_19_1_Conv2d_2_1x1_256/Relu6: 3d418306
FeatureExtractor/MobilenetV2/layer_19_2_Conv2d_2_3x3_s2_512_depthwise/depthwise: 3c6877a5
FeatureExtractor/MobilenetV2/layer_19_2_Conv2d_2_3x3_s2_512_depthwise/BatchNorm/FusedBatchNorm: 3d3bbea5
FeatureExtractor/MobilenetV2/layer_19_2_Conv2d_2_3x3_s2_512_depthwise/Relu6: 3d418306
FeatureExtractor/MobilenetV2/layer_19_2_Conv2d_2_3x3_s2_512/Conv2D: 3cf3142e
FeatureExtractor/MobilenetV2/layer_19_2_Conv2d_2_3x3_s2_512/BatchNorm/FusedBatchNorm: 3d2fbde6
FeatureExtractor/MobilenetV2/layer_19_2_Conv2d_2_3x3_s2_512/Relu6: 3d418306
BoxPredictor_2/BoxEncodingPredictor_depthwise/depthwise: 3b8b5d77
BoxPredictor_2/BoxEncodingPredictor_depthwise/BatchNorm/FusedBatchNorm: 3d4e1459
BoxPredictor_2/BoxEncodingPredictor_depthwise/Relu6: 3d418306
BoxPredictor_2/BoxEncodingPredictor/Conv2D: 3ceb3c27
BoxPredictor_2/BoxEncodingPredictor/BiasAdd: 3cf58d52
FeatureExtractor/MobilenetV2/layer_19_1_Conv2d_3_1x1_128/Conv2D: 3d6712d0
FeatureExtractor/MobilenetV2/layer_19_1_Conv2d_3_1x1_128/BatchNorm/FusedBatchNorm: 3d4219de
FeatureExtractor/MobilenetV2/layer_19_1_Conv2d_3_1x1_128/Relu6: 3d418306
FeatureExtractor/MobilenetV2/layer_19_2_Conv2d_3_3x3_s2_256_depthwise/depthwise: 3c999a79
FeatureExtractor/MobilenetV2/layer_19_2_Conv2d_3_3x3_s2_256_depthwise/BatchNorm/FusedBatchNorm: 3d625304
FeatureExtractor/MobilenetV2/layer_19_2_Conv2d_3_3x3_s2_256_depthwise/Relu6: 3d418306
FeatureExtractor/MobilenetV2/layer_19_2_Conv2d_3_3x3_s2_256/Conv2D: 3ce07128
FeatureExtractor/MobilenetV2/layer_19_2_Conv2d_3_3x3_s2_256/BatchNorm/FusedBatchNorm: 3d56bc04
FeatureExtractor/MobilenetV2/layer_19_2_Conv2d_3_3x3_s2_256/Relu6: 3d418306
BoxPredictor_3/BoxEncodingPredictor_depthwise/depthwise: 3b8268d2
BoxPredictor_3/BoxEncodingPredictor_depthwise/BatchNorm/FusedBatchNorm: 3d3ceac3
BoxPredictor_3/BoxEncodingPredictor_depthwise/Relu6: 3d418306
BoxPredictor_3/BoxEncodingPredictor/Conv2D: 3cb59eb9
BoxPredictor_3/BoxEncodingPredictor/BiasAdd: 3cb53203
FeatureExtractor/MobilenetV2/layer_19_1_Conv2d_4_1x1_128/Conv2D: 3cccb4ca
FeatureExtractor/MobilenetV2/layer_19_1_Conv2d_4_1x1_128/BatchNorm/FusedBatchNorm: 3d43da6e
FeatureExtractor/MobilenetV2/layer_19_1_Conv2d_4_1x1_128/Relu6: 3d418306
FeatureExtractor/MobilenetV2/layer_19_2_Conv2d_4_3x3_s2_256_depthwise/depthwise: 3bb3694a
FeatureExtractor/MobilenetV2/layer_19_2_Conv2d_4_3x3_s2_256_depthwise/BatchNorm/FusedBatchNorm: 3d2a7776
FeatureExtractor/MobilenetV2/layer_19_2_Conv2d_4_3x3_s2_256_depthwise/Relu6: 3d418306
FeatureExtractor/MobilenetV2/layer_19_2_Conv2d_4_3x3_s2_256/Conv2D: 3c3a2517
FeatureExtractor/MobilenetV2/layer_19_2_Conv2d_4_3x3_s2_256/BatchNorm/FusedBatchNorm: 3d1a4164
FeatureExtractor/MobilenetV2/layer_19_2_Conv2d_4_3x3_s2_256/Relu6: 3d418306
BoxPredictor_4/BoxEncodingPredictor_depthwise/depthwise: 3b24c295
BoxPredictor_4/BoxEncodingPredictor_depthwise/BatchNorm/FusedBatchNorm: 3d0e52df
BoxPredictor_4/BoxEncodingPredictor_depthwise/Relu6: 3d418306
BoxPredictor_4/BoxEncodingPredictor/Conv2D: 3c80b8ad
BoxPredictor_4/BoxEncodingPredictor/BiasAdd: 3c78a0b1
FeatureExtractor/MobilenetV2/layer_19_1_Conv2d_5_1x1_64/Conv2D: 3c927270
FeatureExtractor/MobilenetV2/layer_19_1_Conv2d_5_1x1_64/BatchNorm/FusedBatchNorm: 3d398d12
FeatureExtractor/MobilenetV2/layer_19_1_Conv2d_5_1x1_64/Relu6: 3d418306
FeatureExtractor/MobilenetV2/layer_19_2_Conv2d_5_3x3_s2_128_depthwise/depthwise: 3b9474ef
FeatureExtractor/MobilenetV2/layer_19_2_Conv2d_5_3x3_s2_128_depthwise/BatchNorm/FusedBatchNorm: 3cf64f2c
FeatureExtractor/MobilenetV2/layer_19_2_Conv2d_5_3x3_s2_128_depthwise/Relu6: 3d418306
FeatureExtractor/MobilenetV2/layer_19_2_Conv2d_5_3x3_s2_128/Conv2D: 3c0e772a
FeatureExtractor/MobilenetV2/layer_19_2_Conv2d_5_3x3_s2_128/BatchNorm/FusedBatchNorm: 3d0614a1
FeatureExtractor/MobilenetV2/layer_19_2_Conv2d_5_3x3_s2_128/Relu6: 3d418306
BoxPredictor_5/BoxEncodingPredictor_depthwise/depthwise: 3b373ec4
BoxPredictor_5/BoxEncodingPredictor_depthwise/BatchNorm/FusedBatchNorm: 3ca090c6
BoxPredictor_5/BoxEncodingPredictor_depthwise/Relu6: 3d418306
BoxPredictor_5/BoxEncodingPredictor/Conv2D: 3c95b68f
BoxPredictor_5/BoxEncodingPredictor/BiasAdd: 3c661881
BoxPredictor_0/ClassPredictor_depthwise/depthwise: 3cc5ffe9
BoxPredictor_0/ClassPredictor_depthwise/BatchNorm/FusedBatchNorm: 3d7f229d
BoxPredictor_0/ClassPredictor_depthwise/Relu6: 3d418306
BoxPredictor_0/ClassPredictor/Conv2D: 3e8496f6
BoxPredictor_0/ClassPredictor/BiasAdd: 3e7865bd
BoxPredictor_1/ClassPredictor_depthwise/depthwise: 3c4c660a
BoxPredictor_1/ClassPredictor_depthwise/BatchNorm/FusedBatchNorm: 3d8416ae
BoxPredictor_1/ClassPredictor_depthwise/Relu6: 3d418306
BoxPredictor_1/ClassPredictor/Conv2D: 3ea44959
BoxPredictor_1/ClassPredictor/BiasAdd: 3ea17990
BoxPredictor_2/ClassPredictor_depthwise/depthwise: 3c34d20e
BoxPredictor_2/ClassPredictor_depthwise/BatchNorm/FusedBatchNorm: 3d6bd6a9
BoxPredictor_2/ClassPredictor_depthwise/Relu6: 3d418306
BoxPredictor_2/ClassPredictor/Conv2D: 3e1c9450
BoxPredictor_2/ClassPredictor/BiasAdd: 3e1cc307
BoxPredictor_3/ClassPredictor_depthwise/depthwise: 3beee8ee
BoxPredictor_3/ClassPredictor_depthwise/BatchNorm/FusedBatchNorm: 3d5359fb
BoxPredictor_3/ClassPredictor_depthwise/Relu6: 3d418306
BoxPredictor_3/ClassPredictor/Conv2D: 3dc6fb8a
BoxPredictor_3/ClassPredictor/BiasAdd: 3dc9de26
BoxPredictor_4/ClassPredictor_depthwise/depthwise: 3b888d80
BoxPredictor_4/ClassPredictor_depthwise/BatchNorm/FusedBatchNorm: 3d07650d
BoxPredictor_4/ClassPredictor_depthwise/Relu6: 3d418306
BoxPredictor_4/ClassPredictor/Conv2D: 3d93809f
BoxPredictor_4/ClassPredictor/BiasAdd: 3d980215
BoxPredictor_5/ClassPredictor_depthwise/depthwise: 3b879785
BoxPredictor_5/ClassPredictor_depthwise/BatchNorm/FusedBatchNorm: 3c7bee7d
BoxPredictor_5/ClassPredictor_depthwise/Relu6: 3d418306
BoxPredictor_5/ClassPredictor/Conv2D: 3d650fc3
BoxPredictor_5/ClassPredictor/BiasAdd: 3d73bed4
Postprocessor: 3c010a14
