TRT-6001-EntropyCalibration2
Input: 3c010204
Const: 3c010a14
MultipleGridAnchorGenerator: 3a4fb8dc
MultipleGridAnchorGenerator_1: 3a4fb8dc
MultipleGridAnchorGenerator_2: 3a4fb8dc
MultipleGridAnchorGenerator_3: 3a4fb8dc
MultipleGridAnchorGenerator_4: 3a4fb8dc
MultipleGridAnchorGenerator_5: 3a4fb8dc
concat_priorbox: 3a4fb8dc
FeatureExtractor/MobilenetV3/Conv/Conv2D: 3ea9e25b
FeatureExtractor/MobilenetV3/Conv/BatchNorm/FusedBatchNorm: 3f91c7f9
FeatureExtractor/MobilenetV3/Conv/hard_swish/add: 3f8d9ab7
FeatureExtractor/MobilenetV3/Conv/hard_swish/Relu6: 3d418306
FeatureExtractor/MobilenetV3/Conv/hard_swish/mul: 403adb59
FeatureExtractor/MobilenetV3/Conv/hard_swish/mul_1: 3ef92477
FeatureExtractor/MobilenetV3/expanded_conv/depthwise/depthwise: 4023989c
FeatureExtractor/MobilenetV3/expanded_conv/depthwise/BatchNorm/FusedBatchNorm: 3e858714
FeatureExtractor/MobilenetV3/expanded_conv/depthwise/Relu: 3f601075
FeatureExtractor/MobilenetV3/expanded_conv/project/Conv2D: 3fd6f4ec
FeatureExtractor/MobilenetV3/expanded_conv/project/BatchNorm/FusedBatchNorm: 3ec82a9d
FeatureExtractor/MobilenetV3/expanded_conv/add: 3f84e0f1
FeatureExtractor/MobilenetV3/expanded_conv_1/expand/Conv2D: 402a870d
FeatureExtractor/MobilenetV3/expanded_conv_1/expand/BatchNorm/FusedBatchNorm: 3f1826b1
FeatureExtractor/MobilenetV3/expanded_conv_1/expand/Relu: 3f5456d0
FeatureExtractor/MobilenetV3/expanded_conv_1/depthwise/depthwise: 3fd1d926
FeatureExtractor/MobilenetV3/expanded_conv_1/depthwise/BatchNorm/FusedBatchNorm: 3dcb0d9a
FeatureExtractor/MobilenetV3/expanded_conv_1/depthwise/Relu: 3e0cbc50
FeatureExtractor/MobilenetV3/expanded_conv_1/project/Conv2D: 3fcc8461
FeatureExtractor/MobilenetV3/expanded_conv_1/project/BatchNorm/FusedBatchNorm: 3ec3b473
FeatureExtractor/MobilenetV3/expanded_conv_2/expand/Conv2D: 3f5d8c27
FeatureExtractor/MobilenetV3/expanded_conv_2/expand/BatchNorm/FusedBatchNorm: 3ec82e24
FeatureExtractor/MobilenetV3/expanded_conv_2/expand/Relu: 3ec5ab2c
FeatureExtractor/MobilenetV3/expanded_conv_2/depthwise/depthwise: 3ed2fdaa
FeatureExtractor/MobilenetV3/expanded_conv_2/depthwise/BatchNorm/FusedBatchNorm: 3dd2d3d9
FeatureExtractor/MobilenetV3/expanded_conv_2/depthwise/Relu: 3dacb639
FeatureExtractor/MobilenetV3/expanded_conv_2/project/Conv2D: 3ed9ca04
FeatureExtractor/MobilenetV3/expanded_conv_2/project/BatchNorm/FusedBatchNorm: 3e382941
FeatureExtractor/MobilenetV3/expanded_conv_2/add: 3f01397c
FeatureExtractor/MobilenetV3/expanded_conv_3/expand/Conv2D: 3fac8395
FeatureExtractor/MobilenetV3/expanded_conv_3/expand/BatchNorm/FusedBatchNorm: 3ea33a4d
FeatureExtractor/MobilenetV3/expanded_conv_3/expand/Relu: 3e25bce1
FeatureExtractor/MobilenetV3/expanded_conv_3/depthwise/depthwise: 3ea974e7
FeatureExtractor/MobilenetV3/expanded_conv_3/depthwise/BatchNorm/FusedBatchNorm: 3d863674
FeatureExtractor/MobilenetV3/expanded_conv_3/depthwise/Relu: 3d835311
FeatureExtractor/MobilenetV3/expanded_conv_3/squeeze_excite/AvgPool: 3d835311
FeatureExtractor/MobilenetV3/expanded_conv_3/squeeze_excite/Conv/Conv2D: 3d2d5f24
FeatureExtractor/MobilenetV3/expanded_conv_3/squeeze_excite/Conv/BiasAdd: 3d44d7d1
FeatureExtractor/MobilenetV3/expanded_conv_3/squeeze_excite/Conv/Relu: 3d639cb1
FeatureExtractor/MobilenetV3/expanded_conv_3/squeeze_excite/Conv_1/Conv2D: 3d3bda46
FeatureExtractor/MobilenetV3/expanded_conv_3/squeeze_excite/Conv_1/BiasAdd: 3d3ed68a
FeatureExtractor/MobilenetV3/expanded_conv_3/squeeze_excite/Conv_1/add: 3d9413d3
FeatureExtractor/MobilenetV3/expanded_conv_3/squeeze_excite/Conv_1/Relu6: 3d418306
FeatureExtractor/MobilenetV3/expanded_conv_3/squeeze_excite/Conv_1/mul: 3c010abd
FeatureExtractor/MobilenetV3/expanded_conv_3/squeeze_excite/mul: 3d97046c
FeatureExtractor/MobilenetV3/expanded_conv_3/project/Conv2D: 3e6f8ec3
FeatureExtractor/MobilenetV3/expanded_conv_3/project/BatchNorm/FusedBatchNorm: 3faa9f00
FeatureExtractor/MobilenetV3/expanded_conv_4/expand/Conv2D: 408b8720
FeatureExtractor/MobilenetV3/expanded_conv_4/expand/BatchNorm/FusedBatchNorm: 3dc299dd
FeatureExtractor/MobilenetV3/expanded_conv_4/expand/Relu: 3dc2fad5
FeatureExtractor/MobilenetV3/expanded_conv_4/depthwise/depthwise: 3dff30d8
FeatureExtractor/MobilenetV3/expanded_conv_4/depthwise/BatchNorm/FusedBatchNorm: 3d900e00
FeatureExtractor/MobilenetV3/expanded_conv_4/depthwise/Relu: 3d8eb4cf
FeatureExtractor/MobilenetV3/expanded_conv_4/squeeze_excite/AvgPool: 3d8eb4cf
FeatureExtractor/MobilenetV3/expanded_conv_4/squeeze_excite/Conv/Conv2D: 3d037286
FeatureExtractor/MobilenetV3/expanded_conv_4/squeeze_excite/Conv/BiasAdd: 3d1b2bfb
FeatureExtractor/MobilenetV3/expanded_conv_4/squeeze_excite/Conv/Relu: 3d1c172c
FeatureExtractor/MobilenetV3/expanded_conv_4/squeeze_excite/Conv_1/Conv2D: 3d250b07
FeatureExtractor/MobilenetV3/expanded_conv_4/squeeze_excite/Conv_1/BiasAdd: 3d17f501
FeatureExtractor/MobilenetV3/expanded_conv_4/squeeze_excite/Conv_1/add: 3d81b85f
FeatureExtractor/MobilenetV3/expanded_conv_4/squeeze_excite/Conv_1/Relu6: 3d418306
FeatureExtractor/MobilenetV3/expanded_conv_4/squeeze_excite/Conv_1/mul: 3c010abd
FeatureExtractor/MobilenetV3/expanded_conv_4/squeeze_excite/mul: 3d85b6a4
FeatureExtractor/MobilenetV3/expanded_conv_4/project/Conv2D: 3d082d50
FeatureExtractor/MobilenetV3/expanded_conv_4/project/BatchNorm/FusedBatchNorm: 3dfa405f
FeatureExtractor/MobilenetV3/expanded_conv_4/add: 3fbfd395
FeatureExtractor/MobilenetV3/expanded_conv_5/expand/Conv2D: 3fde2fe7
FeatureExtractor/MobilenetV3/expanded_conv_5/expand/BatchNorm/FusedBatchNorm: 3f44c332
FeatureExtractor/MobilenetV3/expanded_conv_5/expand/Relu: 3eefcf81
FeatureExtractor/MobilenetV3/expanded_conv_5/depthwise/depthwise: 3e999e0e
FeatureExtractor/MobilenetV3/expanded_conv_5/depthwise/BatchNorm/FusedBatchNorm: 3d80c6b2
FeatureExtractor/MobilenetV3/expanded_conv_5/depthwise/Relu: 3d848241
FeatureExtractor/MobilenetV3/expanded_conv_5/squeeze_excite/AvgPool: 3d848241
FeatureExtractor/MobilenetV3/expanded_conv_5/squeeze_excite/Conv/Conv2D: 3d09bfaa
FeatureExtractor/MobilenetV3/expanded_conv_5/squeeze_excite/Conv/BiasAdd: 3d058638
FeatureExtractor/MobilenetV3/expanded_conv_5/squeeze_excite/Conv/Relu: 3cea63bf
FeatureExtractor/MobilenetV3/expanded_conv_5/squeeze_excite/Conv_1/Conv2D: 3c3ff56d
FeatureExtractor/MobilenetV3/expanded_conv_5/squeeze_excite/Conv_1/BiasAdd: 3c53eb38
FeatureExtractor/MobilenetV3/expanded_conv_5/squeeze_excite/Conv_1/add: 3d0f6468
FeatureExtractor/MobilenetV3/expanded_conv_5/squeeze_excite/Conv_1/Relu6: 3d418306
FeatureExtractor/MobilenetV3/expanded_conv_5/squeeze_excite/Conv_1/mul: 3bbf3184
FeatureExtractor/MobilenetV3/expanded_conv_5/squeeze_excite/mul: 3d241c32
FeatureExtractor/MobilenetV3/expanded_conv_5/project/Conv2D: 3d1a448e
FeatureExtractor/MobilenetV3/expanded_conv_5/project/BatchNorm/FusedBatchNorm: 3e184774
FeatureExtractor/MobilenetV3/expanded_conv_5/add: 3fc36653
FeatureExtractor/MobilenetV3/expanded_conv_6/expand/Conv2D: 4011048e
FeatureExtractor/MobilenetV3/expanded_conv_6/expand/BatchNorm/FusedBatchNorm: 3d869a1c
FeatureExtractor/MobilenetV3/expanded_conv_6/expand/hard_swish/add: 3d99aee3
FeatureExtractor/MobilenetV3/expanded_conv_6/expand/hard_swish/Relu6: 3d418306
FeatureExtractor/MobilenetV3/expanded_conv_6/expand/hard_swish/mul: 3e53ab09
FeatureExtractor/MobilenetV3/expanded_conv_6/expand/hard_swish/mul_1: 3d0d1cb1
FeatureExtractor/MobilenetV3/expanded_conv_6/depthwise/depthwise: 3d3b3d18
FeatureExtractor/MobilenetV3/expanded_conv_6/depthwise/BatchNorm/FusedBatchNorm: 3e024c6d
FeatureExtractor/MobilenetV3/expanded_conv_6/depthwise/hard_swish/add: 3e00d947
FeatureExtractor/MobilenetV3/expanded_conv_6/depthwise/hard_swish/Relu6: 3d418306
FeatureExtractor/MobilenetV3/expanded_conv_6/depthwise/hard_swish/mul: 3eef207e
FeatureExtractor/MobilenetV3/expanded_conv_6/depthwise/hard_swish/mul_1: 3d9f6aff
FeatureExtractor/MobilenetV3/expanded_conv_6/project/Conv2D: 3e7078d1
FeatureExtractor/MobilenetV3/expanded_conv_6/project/BatchNorm/FusedBatchNorm: 3da41cd2
FeatureExtractor/MobilenetV3/expanded_conv_7/expand/Conv2D: 3e34464a
FeatureExtractor/MobilenetV3/expanded_conv_7/expand/BatchNorm/FusedBatchNorm: 3d77adc8
FeatureExtractor/MobilenetV3/expanded_conv_7/expand/hard_swish/add: 3d8f40a1
FeatureExtractor/MobilenetV3/expanded_conv_7/expand/hard_swish/Relu6: 3d418306
FeatureExtractor/MobilenetV3/expanded_conv_7/expand/hard_swish/mul: 3e34bc13
FeatureExtractor/MobilenetV3/expanded_conv_7/expand/hard_swish/mul_1: 3cf0fac5
FeatureExtractor/MobilenetV3/expanded_conv_7/depthwise/depthwise: 3caf9de3
FeatureExtractor/MobilenetV3/expanded_conv_7/depthwise/BatchNorm/FusedBatchNorm: 3dca1bd4
FeatureExtractor/MobilenetV3/expanded_conv_7/depthwise/hard_swish/add: 3dc601e1
FeatureExtractor/MobilenetV3/expanded_conv_7/depthwise/hard_swish/Relu6: 3d418306
FeatureExtractor/MobilenetV3/expanded_conv_7/depthwise/hard_swish/mul: 3e816465
FeatureExtractor/MobilenetV3/expanded_conv_7/depthwise/hard_swish/mul_1: 3d2c85dc
FeatureExtractor/MobilenetV3/expanded_conv_7/project/Conv2D: 3d998c22
FeatureExtractor/MobilenetV3/expanded_conv_7/project/BatchNorm/FusedBatchNorm: 3d59a685
FeatureExtractor/MobilenetV3/expanded_conv_7/add: 3dbb5e82
FeatureExtractor/MobilenetV3/expanded_conv_8/expand/Conv2D: 3e2a4d5f
FeatureExtractor/MobilenetV3/expanded_conv_8/expand/BatchNorm/FusedBatchNorm: 3d7e6029
FeatureExtractor/MobilenetV3/expanded_conv_8/expand/hard_swish/add: 3da12f91
FeatureExtractor/MobilenetV3/expanded_conv_8/expand/hard_swish/Relu6: 3d418306
FeatureExtractor/MobilenetV3/expanded_conv_8/expand/hard_swish/mul: 3e5361bc
FeatureExtractor/MobilenetV3/expanded_conv_8/expand/hard_swish/mul_1: 3d0cebd3
FeatureExtractor/MobilenetV3/expanded_conv_8/depthwise/depthwise: 3d023fa2
FeatureExtractor/MobilenetV3/expanded_conv_8/depthwise/BatchNorm/FusedBatchNorm: 3dc5e131
FeatureExtractor/MobilenetV3/expanded_conv_8/depthwise/hard_swish/add: 3de3e57b
FeatureExtractor/MobilenetV3/expanded_conv_8/depthwise/hard_swish/Relu6: 3d418306
FeatureExtractor/MobilenetV3/expanded_conv_8/depthwise/hard_swish/mul: 3ec8346c
FeatureExtractor/MobilenetV3/expanded_conv_8/depthwise/hard_swish/mul_1: 3d857849
FeatureExtractor/MobilenetV3/expanded_conv_8/project/Conv2D: 3dcf7174
FeatureExtractor/MobilenetV3/expanded_conv_8/project/BatchNorm/FusedBatchNorm: 3d947871
FeatureExtractor/MobilenetV3/expanded_conv_8/add: 3de830a5
FeatureExtractor/MobilenetV3/expanded_conv_9/expand/Conv2D: 3e3cc6ee
FeatureExtractor/MobilenetV3/expanded_conv_9/expand/BatchNorm/FusedBatchNorm: 3d886c03
FeatureExtractor/MobilenetV3/expanded_conv_9/expand/hard_swish/add: 3db45c81
FeatureExtractor/MobilenetV3/expanded_conv_9/expand/hard_swish/Relu6: 3d418306
FeatureExtractor/MobilenetV3/expanded_conv_9/expand/hard_swish/mul: 3e82f1b1
FeatureExtractor/MobilenetV3/expanded_conv_9/expand/hard_swish/mul_1: 3d2e9798
FeatureExtractor/MobilenetV3/expanded_conv_9/depthwise/depthwise: 3cf7fba6
FeatureExtractor/MobilenetV3/expanded_conv_9/depthwise/BatchNorm/FusedBatchNorm: 3de0a62e
FeatureExtractor/MobilenetV3/expanded_conv_9/depthwise/hard_swish/add: 3dc9d06b
FeatureExtractor/MobilenetV3/expanded_conv_9/depthwise/hard_swish/Relu6: 3d418306
FeatureExtractor/MobilenetV3/expanded_conv_9/depthwise/hard_swish/mul: 3ea9390b
FeatureExtractor/MobilenetV3/expanded_conv_9/depthwise/hard_swish/mul_1: 3d61a165
FeatureExtractor/MobilenetV3/expanded_conv_9/project/Conv2D: 3dabe003
FeatureExtractor/MobilenetV3/expanded_conv_9/project/BatchNorm/FusedBatchNorm: 3dae7303
FeatureExtractor/MobilenetV3/expanded_conv_9/add: 3e04b31b
FeatureExtractor/MobilenetV3/expanded_conv_10/expand/Conv2D: 3e4cbd0c
FeatureExtractor/MobilenetV3/expanded_conv_10/expand/BatchNorm/FusedBatchNorm: 3d814b74
FeatureExtractor/MobilenetV3/expanded_conv_10/expand/hard_swish/add: 3da24f72
FeatureExtractor/MobilenetV3/expanded_conv_10/expand/hard_swish/Relu6: 3d418306
FeatureExtractor/MobilenetV3/expanded_conv_10/expand/hard_swish/mul: 3e435b95
FeatureExtractor/MobilenetV3/expanded_conv_10/expand/hard_swish/mul_1: 3d023d0e
FeatureExtractor/MobilenetV3/expanded_conv_10/depthwise/depthwise: 3c49015d
FeatureExtractor/MobilenetV3/expanded_conv_10/depthwise/BatchNorm/FusedBatchNorm: 3d98d68c
FeatureExtractor/MobilenetV3/expanded_conv_10/depthwise/hard_swish/add: 3da80def
FeatureExtractor/MobilenetV3/expanded_conv_10/depthwise/hard_swish/Relu6: 3d418306
FeatureExtractor/MobilenetV3/expanded_conv_10/depthwise/hard_swish/mul: 3ee244ba
FeatureExtractor/MobilenetV3/expanded_conv_10/depthwise/hard_swish/mul_1: 3d96d87d
FeatureExtractor/MobilenetV3/expanded_conv_10/squeeze_excite/AvgPool: 3d96d87d
FeatureExtractor/MobilenetV3/expanded_conv_10/squeeze_excite/Conv/Conv2D: 3d80cbc9
FeatureExtractor/MobilenetV3/expanded_conv_10/squeeze_excite/Conv/BiasAdd: 3d4d8ced
FeatureExtractor/MobilenetV3/expanded_conv_10/squeeze_excite/Conv/Relu: 3d15ac6c
FeatureExtractor/MobilenetV3/expanded_conv_10/squeeze_excite/Conv_1/Conv2D: 3da50566
FeatureExtractor/MobilenetV3/expanded_conv_10/squeeze_excite/Conv_1/BiasAdd: 3da50566
FeatureExtractor/MobilenetV3/expanded_conv_10/squeeze_excite/Conv_1/add: 3d70556c
FeatureExtractor/MobilenetV3/expanded_conv_10/squeeze_excite/Conv_1/Relu6: 3d418306
FeatureExtractor/MobilenetV3/expanded_conv_10/squeeze_excite/Conv_1/mul: 3c010abd
FeatureExtractor/MobilenetV3/expanded_conv_10/squeeze_excite/mul: 3ce02b71
FeatureExtractor/MobilenetV3/expanded_conv_10/project/Conv2D: 3cfd392d
FeatureExtractor/MobilenetV3/expanded_conv_10/project/BatchNorm/FusedBatchNorm: 3d0ffc44
FeatureExtractor/MobilenetV3/expanded_conv_11/expand/Conv2D: 3d4f8274
FeatureExtractor/MobilenetV3/expanded_conv_11/expand/BatchNorm/FusedBatchNorm: 30810204
FeatureExtractor/MobilenetV3/expanded_conv_11/expand/hard_swish/add: 3cc18f1e
FeatureExtractor/MobilenetV3/expanded_conv_11/expand/hard_swish/Relu6: 3d418306
FeatureExtractor/MobilenetV3/expanded_conv_11/expand/hard_swish/mul: 30810204
FeatureExtractor/MobilenetV3/expanded_conv_11/expand/hard_swish/mul_1: 30810204
FeatureExtractor/MobilenetV3/expanded_conv_11/depthwise/depthwise: 30810204
FeatureExtractor/MobilenetV3/expanded_conv_11/depthwise/BatchNorm/FusedBatchNorm: 30810204
FeatureExtractor/MobilenetV3/expanded_conv_11/depthwise/hard_swish/add: 3cc18f1e
FeatureExtractor/MobilenetV3/expanded_conv_11/depthwise/hard_swish/Relu6: 3d418306
FeatureExtractor/MobilenetV3/expanded_conv_11/depthwise/hard_swish/mul: 30810204
FeatureExtractor/MobilenetV3/expanded_conv_11/depthwise/hard_swish/mul_1: 30810204
FeatureExtractor/MobilenetV3/expanded_conv_11/squeeze_excite/AvgPool: 30810204
FeatureExtractor/MobilenetV3/expanded_conv_11/squeeze_excite/Conv/Conv2D: 30810204
FeatureExtractor/MobilenetV3/expanded_conv_11/squeeze_excite/Conv/BiasAdd: 3b25f1d7
FeatureExtractor/MobilenetV3/expanded_conv_11/squeeze_excite/Conv/Relu: 3b25f1d7
FeatureExtractor/MobilenetV3/expanded_conv_11/squeeze_excite/Conv_1/Conv2D: 3bfa4255
FeatureExtractor/MobilenetV3/expanded_conv_11/squeeze_excite/Conv_1/BiasAdd: 3c1e1c7d
FeatureExtractor/MobilenetV3/expanded_conv_11/squeeze_excite/Conv_1/add: 3ce4ae0a
FeatureExtractor/MobilenetV3/expanded_conv_11/squeeze_excite/Conv_1/Relu6: 3d418306
FeatureExtractor/MobilenetV3/expanded_conv_11/squeeze_excite/Conv_1/mul: 3b9874cf
FeatureExtractor/MobilenetV3/expanded_conv_11/squeeze_excite/mul: 30810204
FeatureExtractor/MobilenetV3/expanded_conv_11/project/Conv2D: 30810204
FeatureExtractor/MobilenetV3/expanded_conv_11/project/BatchNorm/FusedBatchNorm: 3c4635ae
FeatureExtractor/MobilenetV3/expanded_conv_11/add: 3d296c43
FeatureExtractor/MobilenetV3/expanded_conv_12/expand/Conv2D: 3e0c47eb
FeatureExtractor/MobilenetV3/expanded_conv_12/expand/BatchNorm/FusedBatchNorm: 3cb97dfc
FeatureExtractor/MobilenetV3/expanded_conv_12/expand/hard_swish/add: 3d2ee04e
FeatureExtractor/MobilenetV3/expanded_conv_12/expand/hard_swish/Relu6: 3d418306
FeatureExtractor/MobilenetV3/expanded_conv_12/expand/hard_swish/mul: 3dba28e5
FeatureExtractor/MobilenetV3/expanded_conv_12/expand/hard_swish/mul_1: 3c783686
BoxPredictor_0/BoxEncodingPredictor_depthwise/depthwise: 3b60f1dc
BoxPredictor_0/BoxEncodingPredictor_depthwise/BatchNorm/FusedBatchNorm: 3cc76888
BoxPredictor_0/BoxEncodingPredictor_depthwise/Relu6: 3d418306
BoxPredictor_0/BoxEncodingPredictor/Conv2D: 3cf1676a
BoxPredictor_0/BoxEncodingPredictor/BiasAdd: 3d319659
FeatureExtractor/MobilenetV3/expanded_conv_12/depthwise/depthwise: 3c9aeda0
FeatureExtractor/MobilenetV3/expanded_conv_12/depthwise/BatchNorm/FusedBatchNorm: 3ce3119a
FeatureExtractor/MobilenetV3/expanded_conv_12/depthwise/hard_swish/add: 3d534cf1
FeatureExtractor/MobilenetV3/expanded_conv_12/depthwise/hard_swish/Relu6: 3d418306
FeatureExtractor/MobilenetV3/expanded_conv_12/depthwise/hard_swish/mul: 3e25f2e6
FeatureExtractor/MobilenetV3/expanded_conv_12/depthwise/hard_swish/mul_1: 3cdd43de
FeatureExtractor/MobilenetV3/expanded_conv_12/squeeze_excite/AvgPool: 3cdd43de
FeatureExtractor/MobilenetV3/expanded_conv_12/squeeze_excite/Conv/Conv2D: 3c637f3e
FeatureExtractor/MobilenetV3/expanded_conv_12/squeeze_excite/Conv/BiasAdd: 3c6d0d06
FeatureExtractor/MobilenetV3/expanded_conv_12/squeeze_excite/Conv/Relu: 3c715bdd
FeatureExtractor/MobilenetV3/expanded_conv_12/squeeze_excite/Conv_1/Conv2D: 3ca46b54
FeatureExtractor/MobilenetV3/expanded_conv_12/squeeze_excite/Conv_1/BiasAdd: 3cc0418e
FeatureExtractor/MobilenetV3/expanded_conv_12/squeeze_excite/Conv_1/add: 3d2c19ce
FeatureExtractor/MobilenetV3/expanded_conv_12/squeeze_excite/Conv_1/Relu6: 3d418306
FeatureExtractor/MobilenetV3/expanded_conv_12/squeeze_excite/Conv_1/mul: 3be578e8
FeatureExtractor/MobilenetV3/expanded_conv_12/squeeze_excite/mul: 3c58f917
FeatureExtractor/MobilenetV3/expanded_conv_12/project/Conv2D: 3d3073cf
FeatureExtractor/MobilenetV3/expanded_conv_12/project/BatchNorm/FusedBatchNorm: 3ccde76d
FeatureExtractor/MobilenetV3/expanded_conv_13/expand/Conv2D: 3cbc2768
FeatureExtractor/MobilenetV3/expanded_conv_13/expand/BatchNorm/FusedBatchNorm: 3c97616a
FeatureExtractor/MobilenetV3/expanded_conv_13/expand/hard_swish/add: 3d1fa6d2
FeatureExtractor/MobilenetV3/expanded_conv_13/expand/hard_swish/Relu6: 3d418306
FeatureExtractor/MobilenetV3/expanded_conv_13/expand/hard_swish/mul: 3d9b1ada
FeatureExtractor/MobilenetV3/expanded_conv_13/expand/hard_swish/mul_1: 3c4ece78
FeatureExtractor/MobilenetV3/expanded_conv_13/depthwise/depthwise: 3c1c2adb
FeatureExtractor/MobilenetV3/expanded_conv_13/depthwise/BatchNorm/FusedBatchNorm: 3d1f1078
FeatureExtractor/MobilenetV3/expanded_conv_13/depthwise/hard_swish/add: 3d55b192
FeatureExtractor/MobilenetV3/expanded_conv_13/depthwise/hard_swish/Relu6: 3d418306
FeatureExtractor/MobilenetV3/expanded_conv_13/depthwise/hard_swish/mul: 3e333ec3
FeatureExtractor/MobilenetV3/expanded_conv_13/depthwise/hard_swish/mul_1: 3ceefe59
FeatureExtractor/MobilenetV3/expanded_conv_13/squeeze_excite/AvgPool: 3ceefe59
FeatureExtractor/MobilenetV3/expanded_conv_13/squeeze_excite/Conv/Conv2D: 3c1cd594
FeatureExtractor/MobilenetV3/expanded_conv_13/squeeze_excite/Conv/BiasAdd: 3c25d29c
FeatureExtractor/MobilenetV3/expanded_conv_13/squeeze_excite/Conv/Relu: 3c2d44a4
FeatureExtractor/MobilenetV3/expanded_conv_13/squeeze_excite/Conv_1/Conv2D: 3ba67c19
FeatureExtractor/MobilenetV3/expanded_conv_13/squeeze_excite/Conv_1/BiasAdd: 3ba9c099
FeatureExtractor/MobilenetV3/expanded_conv_13/squeeze_excite/Conv_1/add: 3cf492d8
FeatureExtractor/MobilenetV3/expanded_conv_13/squeeze_excite/Conv_1/Relu6: 3d418306
FeatureExtractor/MobilenetV3/expanded_conv_13/squeeze_excite/Conv_1/mul: 3ba30d65
FeatureExtractor/MobilenetV3/expanded_conv_13/squeeze_excite/mul: 3c597920
FeatureExtractor/MobilenetV3/expanded_conv_13/project/Conv2D: 3c7ffa07
FeatureExtractor/MobilenetV3/expanded_conv_13/project/BatchNorm/FusedBatchNorm: 3cc92813
FeatureExtractor/MobilenetV3/expanded_conv_13/add: 3cf1319d
FeatureExtractor/MobilenetV3/expanded_conv_14/expand/Conv2D: 3d0b6bdf
FeatureExtractor/MobilenetV3/expanded_conv_14/expand/BatchNorm/FusedBatchNorm: 3caefd25
FeatureExtractor/MobilenetV3/expanded_conv_14/expand/hard_swish/add: 3d2727d2
FeatureExtractor/MobilenetV3/expanded_conv_14/expand/hard_swish/Relu6: 3d418306
FeatureExtractor/MobilenetV3/expanded_conv_14/expand/hard_swish/mul: 3da5f063
FeatureExtractor/MobilenetV3/expanded_conv_14/expand/hard_swish/mul_1: 3c5d4084
FeatureExtractor/MobilenetV3/expanded_conv_14/depthwise/depthwise: 3becba98
FeatureExtractor/MobilenetV3/expanded_conv_14/depthwise/BatchNorm/FusedBatchNorm: 3d234c54
FeatureExtractor/MobilenetV3/expanded_conv_14/depthwise/hard_swish/add: 3d629f37
FeatureExtractor/MobilenetV3/expanded_conv_14/depthwise/hard_swish/Relu6: 3d418306
FeatureExtractor/MobilenetV3/expanded_conv_14/depthwise/hard_swish/mul: 3e257188
FeatureExtractor/MobilenetV3/expanded_conv_14/depthwise/hard_swish/mul_1: 3cdc9761
FeatureExtractor/MobilenetV3/expanded_conv_14/squeeze_excite/AvgPool: 3cdc9761
FeatureExtractor/MobilenetV3/expanded_conv_14/squeeze_excite/Conv/Conv2D: 3ca4c4ce
FeatureExtractor/MobilenetV3/expanded_conv_14/squeeze_excite/Conv/BiasAdd: 3c8a866d
FeatureExtractor/MobilenetV3/expanded_conv_14/squeeze_excite/Conv/Relu: 3c8f20b0
FeatureExtractor/MobilenetV3/expanded_conv_14/squeeze_excite/Conv_1/Conv2D: 3cc48bb3
FeatureExtractor/MobilenetV3/expanded_conv_14/squeeze_excite/Conv_1/BiasAdd: 3cb57703
FeatureExtractor/MobilenetV3/expanded_conv_14/squeeze_excite/Conv_1/add: 3d20f3df
FeatureExtractor/MobilenetV3/expanded_conv_14/squeeze_excite/Conv_1/Relu6: 3d418306
FeatureExtractor/MobilenetV3/expanded_conv_14/squeeze_excite/Conv_1/mul: 3bd69b97
FeatureExtractor/MobilenetV3/expanded_conv_14/squeeze_excite/mul: 3c6ef1f0
FeatureExtractor/MobilenetV3/expanded_conv_14/project/Conv2D: 3cc1e8f0
FeatureExtractor/MobilenetV3/expanded_conv_14/project/BatchNorm/FusedBatchNorm: 3cdf5b7e
FeatureExtractor/MobilenetV3/expanded_conv_14/add: 3d21d228
FeatureExtractor/MobilenetV3/Conv_1/Conv2D: 3d80b778
FeatureExtractor/MobilenetV3/Conv_1/BatchNorm/FusedBatchNorm: 3c9a13a1
FeatureExtractor/MobilenetV3/Conv_1/hard_swish/add: 3d297791
FeatureExtractor/MobilenetV3/Conv_1/hard_swish/Relu6: 3d418306
FeatureExtractor/MobilenetV3/Conv_1/hard_swish/mul: 3dc9b3dd
FeatureExtractor/MobilenetV3/Conv_1/hard_swish/mul_1: 3c8677e9
BoxPredictor_1/BoxEncodingPredictor_depthwise/depthwise: 3ba16edd
BoxPredictor_1/BoxEncodingPredictor_depthwise/BatchNorm/FusedBatchNorm: 3d08c124
BoxPredictor_1/BoxEncodingPredictor_depthwise/Relu6: 3d418306
BoxPredictor_1/BoxEncodingPredictor/Conv2D: 3cc4f708
BoxPredictor_1/BoxEncodingPredictor/BiasAdd: 3ca13348
FeatureExtractor/MobilenetV3/layer_17_1_Conv2d_2_1x1_256/Conv2D: 3c93715e
FeatureExtractor/MobilenetV3/layer_17_1_Conv2d_2_1x1_256/BatchNorm/FusedBatchNorm: 3c7df30f
FeatureExtractor/MobilenetV3/layer_17_1_Conv2d_2_1x1_256/Relu6: 3d418306
FeatureExtractor/MobilenetV3/layer_17_2_Conv2d_2_3x3_s2_512_depthwise/depthwise: 3c17ac8f
FeatureExtractor/MobilenetV3/layer_17_2_Conv2d_2_3x3_s2_512_depthwise/BatchNorm/FusedBatchNorm: 3c53434c
FeatureExtractor/MobilenetV3/layer_17_2_Conv2d_2_3x3_s2_512_depthwise/Relu6: 3d418306
FeatureExtractor/MobilenetV3/layer_17_2_Conv2d_2_3x3_s2_512/Conv2D: 3c8b44db
FeatureExtractor/MobilenetV3/layer_17_2_Conv2d_2_3x3_s2_512/BatchNorm/FusedBatchNorm: 3cb8cec4
FeatureExtractor/MobilenetV3/layer_17_2_Conv2d_2_3x3_s2_512/Relu6: 3d418306
BoxPredictor_2/BoxEncodingPredictor_depthwise/depthwise: 3b9c2930
BoxPredictor_2/BoxEncodingPredictor_depthwise/BatchNorm/FusedBatchNorm: 3cd3836c
BoxPredictor_2/BoxEncodingPredictor_depthwise/Relu6: 3d418306
BoxPredictor_2/BoxEncodingPredictor/Conv2D: 3c9823e0
BoxPredictor_2/BoxEncodingPredictor/BiasAdd: 3c909a1f
FeatureExtractor/MobilenetV3/layer_17_1_Conv2d_3_1x1_128/Conv2D: 3cd8e730
FeatureExtractor/MobilenetV3/layer_17_1_Conv2d_3_1x1_128/BatchNorm/FusedBatchNorm: 3ca23d7b
FeatureExtractor/MobilenetV3/layer_17_1_Conv2d_3_1x1_128/Relu6: 3d418306
FeatureExtractor/MobilenetV3/layer_17_2_Conv2d_3_3x3_s2_256_depthwise/depthwise: 3c57ed73
FeatureExtractor/MobilenetV3/layer_17_2_Conv2d_3_3x3_s2_256_depthwise/BatchNorm/FusedBatchNorm: 3cadefc1
FeatureExtractor/MobilenetV3/layer_17_2_Conv2d_3_3x3_s2_256_depthwise/Relu6: 3d418306
FeatureExtractor/MobilenetV3/layer_17_2_Conv2d_3_3x3_s2_256/Conv2D: 3cad76bc
FeatureExtractor/MobilenetV3/layer_17_2_Conv2d_3_3x3_s2_256/BatchNorm/FusedBatchNorm: 3cd42d34
FeatureExtractor/MobilenetV3/layer_17_2_Conv2d_3_3x3_s2_256/Relu6: 3d418306
BoxPredictor_3/BoxEncodingPredictor_depthwise/depthwise: 3bb3f6c9
BoxPredictor_3/BoxEncodingPredictor_depthwise/BatchNorm/FusedBatchNorm: 3d03652a
BoxPredictor_3/BoxEncodingPredictor_depthwise/Relu6: 3d418306
BoxPredictor_3/BoxEncodingPredictor/Conv2D: 3c80f53f
BoxPredictor_3/BoxEncodingPredictor/BiasAdd: 3c9447cc
FeatureExtractor/MobilenetV3/layer_17_1_Conv2d_4_1x1_128/Conv2D: 3cb85890
FeatureExtractor/MobilenetV3/layer_17_1_Conv2d_4_1x1_128/BatchNorm/FusedBatchNorm: 3cdf69d8
FeatureExtractor/MobilenetV3/layer_17_1_Conv2d_4_1x1_128/Relu6: 3d418306
FeatureExtractor/MobilenetV3/layer_17_2_Conv2d_4_3x3_s2_256_depthwise/depthwise: 3bbf25ec
FeatureExtractor/MobilenetV3/layer_17_2_Conv2d_4_3x3_s2_256_depthwise/BatchNorm/FusedBatchNorm: 3cd7ae37
FeatureExtractor/MobilenetV3/layer_17_2_Conv2d_4_3x3_s2_256_depthwise/Relu6: 3d418306
FeatureExtractor/MobilenetV3/layer_17_2_Conv2d_4_3x3_s2_256/Conv2D: 3c46df50
FeatureExtractor/MobilenetV3/layer_17_2_Conv2d_4_3x3_s2_256/BatchNorm/FusedBatchNorm: 3cc97424
FeatureExtractor/MobilenetV3/layer_17_2_Conv2d_4_3x3_s2_256/Relu6: 3d418306
BoxPredictor_4/BoxEncodingPredictor_depthwise/depthwise: 3b04d5e6
BoxPredictor_4/BoxEncodingPredictor_depthwise/BatchNorm/FusedBatchNorm: 3cd9c2bc
BoxPredictor_4/BoxEncodingPredictor_depthwise/Relu6: 3d418306
BoxPredictor_4/BoxEncodingPredictor/Conv2D: 3c7f2e8f
BoxPredictor_4/BoxEncodingPredictor/BiasAdd: 3c822b80
FeatureExtractor/MobilenetV3/layer_17_1_Conv2d_5_1x1_64/Conv2D: 3cddc153
FeatureExtractor/MobilenetV3/layer_17_1_Conv2d_5_1x1_64/BatchNorm/FusedBatchNorm: 3cb0d03e
FeatureExtractor/MobilenetV3/layer_17_1_Conv2d_5_1x1_64/Relu6: 3d418306
FeatureExtractor/MobilenetV3/layer_17_2_Conv2d_5_3x3_s2_128_depthwise/depthwise: 3b94ea5f
FeatureExtractor/MobilenetV3/layer_17_2_Conv2d_5_3x3_s2_128_depthwise/BatchNorm/FusedBatchNorm: 3c9aa7d3
FeatureExtractor/MobilenetV3/layer_17_2_Conv2d_5_3x3_s2_128_depthwise/Relu6: 3d418306
FeatureExtractor/MobilenetV3/layer_17_2_Conv2d_5_3x3_s2_128/Conv2D: 3c3e27aa
FeatureExtractor/MobilenetV3/layer_17_2_Conv2d_5_3x3_s2_128/BatchNorm/FusedBatchNorm: 3c7274a1
FeatureExtractor/MobilenetV3/layer_17_2_Conv2d_5_3x3_s2_128/Relu6: 3d418306
BoxPredictor_5/BoxEncodingPredictor_depthwise/depthwise: 3a962174
BoxPredictor_5/BoxEncodingPredictor_depthwise/BatchNorm/FusedBatchNorm: 3c2c1574
BoxPredictor_5/BoxEncodingPredictor_depthwise/Relu6: 3d418306
BoxPredictor_5/BoxEncodingPredictor/Conv2D: 3c5a0ff7
BoxPredictor_5/BoxEncodingPredictor/BiasAdd: 3c9eabad
BoxPredictor_0/ClassPredictor_depthwise/depthwise: 3c518d5a
BoxPredictor_0/ClassPredictor_depthwise/BatchNorm/FusedBatchNorm: 3cad924c
BoxPredictor_0/ClassPredictor_depthwise/Relu6: 3d418306
BoxPredictor_0/ClassPredictor/Conv2D: 3d335d4f
BoxPredictor_0/ClassPredictor/BiasAdd: 3d81d62d
BoxPredictor_1/ClassPredictor_depthwise/depthwise: 3c42f5bb
BoxPredictor_1/ClassPredictor_depthwise/BatchNorm/FusedBatchNorm: 3cc07bbc
BoxPredictor_1/ClassPredictor_depthwise/Relu6: 3d418306
BoxPredictor_1/ClassPredictor/Conv2D: 3d1b203b
BoxPredictor_1/ClassPredictor/BiasAdd: 3d3b1299
BoxPredictor_2/ClassPredictor_depthwise/depthwise: 3c0db0a0
BoxPredictor_2/ClassPredictor_depthwise/BatchNorm/FusedBatchNorm: 3cf6f0ee
BoxPredictor_2/ClassPredictor_depthwise/Relu6: 3d418306
BoxPredictor_2/ClassPredictor/Conv2D: 3d5882dc
BoxPredictor_2/ClassPredictor/BiasAdd: 3d65fb61
BoxPredictor_3/ClassPredictor_depthwise/depthwise: 3c05059e
BoxPredictor_3/ClassPredictor_depthwise/BatchNorm/FusedBatchNorm: 3cea055a
BoxPredictor_3/ClassPredictor_depthwise/Relu6: 3d418306
BoxPredictor_3/ClassPredictor/Conv2D: 3d4fe5a2
BoxPredictor_3/ClassPredictor/BiasAdd: 3d5824d3
BoxPredictor_4/ClassPredictor_depthwise/depthwise: 3b8250f0
BoxPredictor_4/ClassPredictor_depthwise/BatchNorm/FusedBatchNorm: 3d01ab4b
BoxPredictor_4/ClassPredictor_depthwise/Relu6: 3d418306
BoxPredictor_4/ClassPredictor/Conv2D: 3d2840f7
BoxPredictor_4/ClassPredictor/BiasAdd: 3d346b0d
BoxPredictor_5/ClassPredictor_depthwise/depthwise: 3b0d1507
BoxPredictor_5/ClassPredictor_depthwise/BatchNorm/FusedBatchNorm: 3c8d5edb
BoxPredictor_5/ClassPredictor_depthwise/Relu6: 3d418306
BoxPredictor_5/ClassPredictor/Conv2D: 3d10d1d0
BoxPredictor_5/ClassPredictor/BiasAdd: 3d22521b
Postprocessor: 3c010a14
