TRT-6001-EntropyCalibration2
Input: 3c010204
FeatureExtractor/MobilenetV2/Conv/Conv2D: 3d37d63b
FeatureExtractor/MobilenetV2/Conv/BatchNorm/batchnorm/mul_1: 3df9cc9c
FeatureExtractor/MobilenetV2/Conv/BatchNorm/batchnorm/add_1: 3da0e4d4
FeatureExtractor/MobilenetV2/Conv/Relu6: 3d418306
FeatureExtractor/MobilenetV2/expanded_conv/depthwise/depthwise: 3e63c593
FeatureExtractor/MobilenetV2/expanded_conv/depthwise/BatchNorm/batchnorm/mul_1: 3ed19e02
FeatureExtractor/MobilenetV2/expanded_conv/depthwise/BatchNorm/batchnorm/add_1: 3dc6b653
FeatureExtractor/MobilenetV2/expanded_conv/depthwise/Relu6: 3d418306
FeatureExtractor/MobilenetV2/expanded_conv/project/Conv2D: 3e398294
FeatureExtractor/MobilenetV2/expanded_conv/project/BatchNorm/batchnorm/mul_1: 3e5de09d
FeatureExtractor/MobilenetV2/expanded_conv/project/BatchNorm/batchnorm/add_1: 3e0f4d47
FeatureExtractor/MobilenetV2/expanded_conv_1/expand/Conv2D: 3e445178
FeatureExtractor/MobilenetV2/expanded_conv_1/expand/BatchNorm/batchnorm/mul_1: 3dce4371
FeatureExtractor/MobilenetV2/expanded_conv_1/expand/BatchNorm/batchnorm/add_1: 3de3ff42
FeatureExtractor/MobilenetV2/expanded_conv_1/expand/Relu6: 3d418306
FeatureExtractor/MobilenetV2/expanded_conv_1/depthwise/depthwise: 3e50e7ab
FeatureExtractor/MobilenetV2/expanded_conv_1/depthwise/BatchNorm/batchnorm/mul_1: 3e0aba4f
FeatureExtractor/MobilenetV2/expanded_conv_1/depthwise/BatchNorm/batchnorm/add_1: 3d83bbee
FeatureExtractor/MobilenetV2/expanded_conv_1/depthwise/Relu6: 3d418306
FeatureExtractor/MobilenetV2/expanded_conv_1/project/Conv2D: 3e08f72d
FeatureExtractor/MobilenetV2/expanded_conv_1/project/BatchNorm/batchnorm/mul_1: 3dfbd953
FeatureExtractor/MobilenetV2/expanded_conv_1/project/BatchNorm/batchnorm/add_1: 3de256ad
FeatureExtractor/MobilenetV2/expanded_conv_2/expand/Conv2D: 3e128229
FeatureExtractor/MobilenetV2/expanded_conv_2/expand/BatchNorm/batchnorm/mul_1: 3da779b0
FeatureExtractor/MobilenetV2/expanded_conv_2/expand/BatchNorm/batchnorm/add_1: 3dd3cfb0
FeatureExtractor/MobilenetV2/expanded_conv_2/expand/Relu6: 3d418306
FeatureExtractor/MobilenetV2/expanded_conv_2/depthwise/depthwise: 3dd58eda
FeatureExtractor/MobilenetV2/expanded_conv_2/depthwise/BatchNorm/batchnorm/mul_1: 3de6ffcd
FeatureExtractor/MobilenetV2/expanded_conv_2/depthwise/BatchNorm/batchnorm/add_1: 3dda758b
FeatureExtractor/MobilenetV2/expanded_conv_2/depthwise/Relu6: 3d418306
FeatureExtractor/MobilenetV2/expanded_conv_2/project/Conv2D: 3df0fcd6
FeatureExtractor/MobilenetV2/expanded_conv_2/project/BatchNorm/batchnorm/mul_1: 3e4f47a6
FeatureExtractor/MobilenetV2/expanded_conv_2/project/BatchNorm/batchnorm/add_1: 3e34f8a4
FeatureExtractor/MobilenetV2/expanded_conv_2/add: 3e543763
FeatureExtractor/MobilenetV2/expanded_conv_3/expand/Conv2D: 3eae030c
FeatureExtractor/MobilenetV2/expanded_conv_3/expand/BatchNorm/batchnorm/mul_1: 3dae835a
FeatureExtractor/MobilenetV2/expanded_conv_3/expand/BatchNorm/batchnorm/add_1: 3db2408c
FeatureExtractor/MobilenetV2/expanded_conv_3/expand/Relu6: 3d418306
FeatureExtractor/MobilenetV2/expanded_conv_3/depthwise/depthwise: 3e2b0768
FeatureExtractor/MobilenetV2/expanded_conv_3/depthwise/BatchNorm/batchnorm/mul_1: 3e064459
FeatureExtractor/MobilenetV2/expanded_conv_3/depthwise/BatchNorm/batchnorm/add_1: 3d2c7bb0
FeatureExtractor/MobilenetV2/expanded_conv_3/depthwise/Relu6: 3d418306
FeatureExtractor/MobilenetV2/expanded_conv_3/project/Conv2D: 3e129a3b
FeatureExtractor/MobilenetV2/expanded_conv_3/project/BatchNorm/batchnorm/mul_1: 3e226343
FeatureExtractor/MobilenetV2/expanded_conv_3/project/BatchNorm/batchnorm/add_1: 3de41a0e
FeatureExtractor/MobilenetV2/expanded_conv_4/expand/Conv2D: 3e0071dc
FeatureExtractor/MobilenetV2/expanded_conv_4/expand/BatchNorm/batchnorm/mul_1: 3d5ef9aa
FeatureExtractor/MobilenetV2/expanded_conv_4/expand/BatchNorm/batchnorm/add_1: 3d5d7808
FeatureExtractor/MobilenetV2/expanded_conv_4/expand/Relu6: 3d418306
FeatureExtractor/MobilenetV2/expanded_conv_4/depthwise/depthwise: 3d993abf
FeatureExtractor/MobilenetV2/expanded_conv_4/depthwise/BatchNorm/batchnorm/mul_1: 3dbeb96a
FeatureExtractor/MobilenetV2/expanded_conv_4/depthwise/BatchNorm/batchnorm/add_1: 3d7e22ca
FeatureExtractor/MobilenetV2/expanded_conv_4/depthwise/Relu6: 3d418306
FeatureExtractor/MobilenetV2/expanded_conv_4/project/Conv2D: 3db933fd
FeatureExtractor/MobilenetV2/expanded_conv_4/project/BatchNorm/batchnorm/mul_1: 3e03cdc4
FeatureExtractor/MobilenetV2/expanded_conv_4/project/BatchNorm/batchnorm/add_1: 3dce24aa
FeatureExtractor/MobilenetV2/expanded_conv_4/add: 3e0b182a
FeatureExtractor/MobilenetV2/expanded_conv_5/expand/Conv2D: 3e1c3d07
FeatureExtractor/MobilenetV2/expanded_conv_5/expand/BatchNorm/batchnorm/mul_1: 3d538efc
FeatureExtractor/MobilenetV2/expanded_conv_5/expand/BatchNorm/batchnorm/add_1: 3d57da18
FeatureExtractor/MobilenetV2/expanded_conv_5/expand/Relu6: 3d418306
FeatureExtractor/MobilenetV2/expanded_conv_5/depthwise/depthwise: 3d84b2bb
FeatureExtractor/MobilenetV2/expanded_conv_5/depthwise/BatchNorm/batchnorm/mul_1: 3dcdef60
FeatureExtractor/MobilenetV2/expanded_conv_5/depthwise/BatchNorm/batchnorm/add_1: 3dce6a75
FeatureExtractor/MobilenetV2/expanded_conv_5/depthwise/Relu6: 3d418306
FeatureExtractor/MobilenetV2/expanded_conv_5/project/Conv2D: 3d86f2c2
FeatureExtractor/MobilenetV2/expanded_conv_5/project/BatchNorm/batchnorm/mul_1: 3e0991d1
FeatureExtractor/MobilenetV2/expanded_conv_5/project/BatchNorm/batchnorm/add_1: 3dddae16
FeatureExtractor/MobilenetV2/expanded_conv_5/add: 3e376325
FeatureExtractor/MobilenetV2/expanded_conv_6/expand/Conv2D: 3e56bbe5
FeatureExtractor/MobilenetV2/expanded_conv_6/expand/BatchNorm/batchnorm/mul_1: 3d610d11
FeatureExtractor/MobilenetV2/expanded_conv_6/expand/BatchNorm/batchnorm/add_1: 3d7064a1
FeatureExtractor/MobilenetV2/expanded_conv_6/expand/Relu6: 3d418306
FeatureExtractor/MobilenetV2/expanded_conv_6/depthwise/depthwise: 3dce2042
FeatureExtractor/MobilenetV2/expanded_conv_6/depthwise/BatchNorm/batchnorm/mul_1: 3d8e5d1f
FeatureExtractor/MobilenetV2/expanded_conv_6/depthwise/BatchNorm/batchnorm/add_1: 3d032c16
FeatureExtractor/MobilenetV2/expanded_conv_6/depthwise/Relu6: 3d418306
FeatureExtractor/MobilenetV2/expanded_conv_6/project/Conv2D: 3e18f6ff
FeatureExtractor/MobilenetV2/expanded_conv_6/project/BatchNorm/batchnorm/mul_1: 3e0a1089
FeatureExtractor/MobilenetV2/expanded_conv_6/project/BatchNorm/batchnorm/add_1: 3db97b42
FeatureExtractor/MobilenetV2/expanded_conv_7/expand/Conv2D: 3db75971
FeatureExtractor/MobilenetV2/expanded_conv_7/expand/BatchNorm/batchnorm/mul_1: 3d519c28
FeatureExtractor/MobilenetV2/expanded_conv_7/expand/BatchNorm/batchnorm/add_1: 3d70f25a
FeatureExtractor/MobilenetV2/expanded_conv_7/expand/Relu6: 3d418306
FeatureExtractor/MobilenetV2/expanded_conv_7/depthwise/depthwise: 3d9ce848
FeatureExtractor/MobilenetV2/expanded_conv_7/depthwise/BatchNorm/batchnorm/mul_1: 3dfad2d2
FeatureExtractor/MobilenetV2/expanded_conv_7/depthwise/BatchNorm/batchnorm/add_1: 3e18faf4
FeatureExtractor/MobilenetV2/expanded_conv_7/depthwise/Relu6: 3d418306
FeatureExtractor/MobilenetV2/expanded_conv_7/project/Conv2D: 3d86c6b2
FeatureExtractor/MobilenetV2/expanded_conv_7/project/BatchNorm/batchnorm/mul_1: 3dc00e94
FeatureExtractor/MobilenetV2/expanded_conv_7/project/BatchNorm/batchnorm/add_1: 3d94ade3
FeatureExtractor/MobilenetV2/expanded_conv_7/add: 3ddd2b72
FeatureExtractor/MobilenetV2/expanded_conv_8/expand/Conv2D: 3de44b58
FeatureExtractor/MobilenetV2/expanded_conv_8/expand/BatchNorm/batchnorm/mul_1: 3da2c9fb
FeatureExtractor/MobilenetV2/expanded_conv_8/expand/BatchNorm/batchnorm/add_1: 3daac4a5
FeatureExtractor/MobilenetV2/expanded_conv_8/expand/Relu6: 3d418306
FeatureExtractor/MobilenetV2/expanded_conv_8/depthwise/depthwise: 3d5f1359
FeatureExtractor/MobilenetV2/expanded_conv_8/depthwise/BatchNorm/batchnorm/mul_1: 3daf8c88
FeatureExtractor/MobilenetV2/expanded_conv_8/depthwise/BatchNorm/batchnorm/add_1: 3dc4ad87
FeatureExtractor/MobilenetV2/expanded_conv_8/depthwise/Relu6: 3d418306
FeatureExtractor/MobilenetV2/expanded_conv_8/project/Conv2D: 3d8eb911
FeatureExtractor/MobilenetV2/expanded_conv_8/project/BatchNorm/batchnorm/mul_1: 3dd42334
FeatureExtractor/MobilenetV2/expanded_conv_8/project/BatchNorm/batchnorm/add_1: 3d9d7bc9
FeatureExtractor/MobilenetV2/expanded_conv_8/add: 3e06ac31
FeatureExtractor/MobilenetV2/expanded_conv_9/expand/Conv2D: 3e1655a2
FeatureExtractor/MobilenetV2/expanded_conv_9/expand/BatchNorm/batchnorm/mul_1: 3d97cac5
FeatureExtractor/MobilenetV2/expanded_conv_9/expand/BatchNorm/batchnorm/add_1: 3d9f656a
FeatureExtractor/MobilenetV2/expanded_conv_9/expand/Relu6: 3d418306
FeatureExtractor/MobilenetV2/expanded_conv_9/depthwise/depthwise: 3d603a7a
FeatureExtractor/MobilenetV2/expanded_conv_9/depthwise/BatchNorm/batchnorm/mul_1: 3ded9436
FeatureExtractor/MobilenetV2/expanded_conv_9/depthwise/BatchNorm/batchnorm/add_1: 3ddb9059
FeatureExtractor/MobilenetV2/expanded_conv_9/depthwise/Relu6: 3d418306
FeatureExtractor/MobilenetV2/expanded_conv_9/project/Conv2D: 3d4848c8
FeatureExtractor/MobilenetV2/expanded_conv_9/project/BatchNorm/batchnorm/mul_1: 3e10f383
FeatureExtractor/MobilenetV2/expanded_conv_9/project/BatchNorm/batchnorm/add_1: 3dc5f8c9
FeatureExtractor/MobilenetV2/expanded_conv_9/add: 3e248d2e
FeatureExtractor/MobilenetV2/expanded_conv_10/expand/Conv2D: 3e32029a
FeatureExtractor/MobilenetV2/expanded_conv_10/expand/BatchNorm/batchnorm/mul_1: 3d5ecfea
FeatureExtractor/MobilenetV2/expanded_conv_10/expand/BatchNorm/batchnorm/add_1: 3d6fffed
FeatureExtractor/MobilenetV2/expanded_conv_10/expand/Relu6: 3d418306
FeatureExtractor/MobilenetV2/expanded_conv_10/depthwise/depthwise: 3d846828
FeatureExtractor/MobilenetV2/expanded_conv_10/depthwise/BatchNorm/batchnorm/mul_1: 3d88863b
FeatureExtractor/MobilenetV2/expanded_conv_10/depthwise/BatchNorm/batchnorm/add_1: 3d047136
FeatureExtractor/MobilenetV2/expanded_conv_10/depthwise/Relu6: 3d418306
FeatureExtractor/MobilenetV2/expanded_conv_10/project/Conv2D: 3df73de8
FeatureExtractor/MobilenetV2/expanded_conv_10/project/BatchNorm/batchnorm/mul_1: 3e1d8d4f
FeatureExtractor/MobilenetV2/expanded_conv_10/project/BatchNorm/batchnorm/add_1: 3d8181ae
FeatureExtractor/MobilenetV2/expanded_conv_11/expand/Conv2D: 3dcba5fe
FeatureExtractor/MobilenetV2/expanded_conv_11/expand/BatchNorm/batchnorm/mul_1: 3d7b2d6b
FeatureExtractor/MobilenetV2/expanded_conv_11/expand/BatchNorm/batchnorm/add_1: 3d793b47
FeatureExtractor/MobilenetV2/expanded_conv_11/expand/Relu6: 3d418306
FeatureExtractor/MobilenetV2/expanded_conv_11/depthwise/depthwise: 3d71e9e9
FeatureExtractor/MobilenetV2/expanded_conv_11/depthwise/BatchNorm/batchnorm/mul_1: 3dd27942
FeatureExtractor/MobilenetV2/expanded_conv_11/depthwise/BatchNorm/batchnorm/add_1: 3d9ce553
FeatureExtractor/MobilenetV2/expanded_conv_11/depthwise/Relu6: 3d418306
FeatureExtractor/MobilenetV2/expanded_conv_11/project/Conv2D: 3dd32594
FeatureExtractor/MobilenetV2/expanded_conv_11/project/BatchNorm/batchnorm/mul_1: 3e4855f3
FeatureExtractor/MobilenetV2/expanded_conv_11/project/BatchNorm/batchnorm/add_1: 3e0a2451
FeatureExtractor/MobilenetV2/expanded_conv_11/add: 3e28fed2
FeatureExtractor/MobilenetV2/expanded_conv_12/expand/Conv2D: 3e3a1330
FeatureExtractor/MobilenetV2/expanded_conv_12/expand/BatchNorm/batchnorm/mul_1: 3da6151d
FeatureExtractor/MobilenetV2/expanded_conv_12/expand/BatchNorm/batchnorm/add_1: 3dbc27a2
FeatureExtractor/MobilenetV2/expanded_conv_12/expand/Relu6: 3d418306
FeatureExtractor/MobilenetV2/expanded_conv_12/depthwise/depthwise: 3d84890e
FeatureExtractor/MobilenetV2/expanded_conv_12/depthwise/BatchNorm/batchnorm/mul_1: 3d967173
FeatureExtractor/MobilenetV2/expanded_conv_12/depthwise/BatchNorm/batchnorm/add_1: 3da774c2
FeatureExtractor/MobilenetV2/expanded_conv_12/depthwise/Relu6: 3d418306
FeatureExtractor/MobilenetV2/expanded_conv_12/project/Conv2D: 3d9a3b88
FeatureExtractor/MobilenetV2/expanded_conv_12/project/BatchNorm/batchnorm/mul_1: 3e33b600
FeatureExtractor/MobilenetV2/expanded_conv_12/project/BatchNorm/batchnorm/add_1: 3e07d42b
FeatureExtractor/MobilenetV2/expanded_conv_12/add: 3e6e31d2
FeatureExtractor/MobilenetV2/expanded_conv_13/expand/Conv2D: 3e4efa5b
FeatureExtractor/MobilenetV2/expanded_conv_13/expand/BatchNorm/batchnorm/mul_1: 3dcee9dd
FeatureExtractor/MobilenetV2/expanded_conv_13/expand/BatchNorm/batchnorm/add_1: 3dd9f0ea
FeatureExtractor/MobilenetV2/expanded_conv_13/expand/Relu6: 3d418306
BoxPredictor_0/ClassPredictor/Conv2D: 3ebe1ebc
BoxPredictor_0/ClassPredictor/BiasAdd: 3ec877f1
FeatureExtractor/MobilenetV2/expanded_conv_13/depthwise/depthwise: 3d79392a
FeatureExtractor/MobilenetV2/expanded_conv_13/depthwise/BatchNorm/batchnorm/mul_1: 3d891383
FeatureExtractor/MobilenetV2/expanded_conv_13/depthwise/BatchNorm/batchnorm/add_1: 3cb5a729
FeatureExtractor/MobilenetV2/expanded_conv_13/depthwise/Relu6: 3d418306
FeatureExtractor/MobilenetV2/expanded_conv_13/project/Conv2D: 3e2a3842
FeatureExtractor/MobilenetV2/expanded_conv_13/project/BatchNorm/batchnorm/mul_1: 3e1ca1bd
FeatureExtractor/MobilenetV2/expanded_conv_13/project/BatchNorm/batchnorm/add_1: 3df2259b
FeatureExtractor/MobilenetV2/expanded_conv_14/expand/Conv2D: 3de1b3f3
FeatureExtractor/MobilenetV2/expanded_conv_14/expand/BatchNorm/batchnorm/mul_1: 3dcd4b32
FeatureExtractor/MobilenetV2/expanded_conv_14/expand/BatchNorm/batchnorm/add_1: 3ddd5f15
FeatureExtractor/MobilenetV2/expanded_conv_14/expand/Relu6: 3d418306
FeatureExtractor/MobilenetV2/expanded_conv_14/depthwise/depthwise: 3d7ee4d0
FeatureExtractor/MobilenetV2/expanded_conv_14/depthwise/BatchNorm/batchnorm/mul_1: 3dc12f29
FeatureExtractor/MobilenetV2/expanded_conv_14/depthwise/BatchNorm/batchnorm/add_1: 3dc66d16
FeatureExtractor/MobilenetV2/expanded_conv_14/depthwise/Relu6: 3d418306
FeatureExtractor/MobilenetV2/expanded_conv_14/project/Conv2D: 3dcd440a
FeatureExtractor/MobilenetV2/expanded_conv_14/project/BatchNorm/batchnorm/mul_1: 3ddc3ee1
FeatureExtractor/MobilenetV2/expanded_conv_14/project/BatchNorm/batchnorm/add_1: 3dc21ae9
FeatureExtractor/MobilenetV2/expanded_conv_14/add: 3e2bc397
FeatureExtractor/MobilenetV2/expanded_conv_15/expand/Conv2D: 3e1e2f84
FeatureExtractor/MobilenetV2/expanded_conv_15/expand/BatchNorm/batchnorm/mul_1: 3dc80ba7
FeatureExtractor/MobilenetV2/expanded_conv_15/expand/BatchNorm/batchnorm/add_1: 3dc39eef
FeatureExtractor/MobilenetV2/expanded_conv_15/expand/Relu6: 3d418306
FeatureExtractor/MobilenetV2/expanded_conv_15/depthwise/depthwise: 3d3f42d5
FeatureExtractor/MobilenetV2/expanded_conv_15/depthwise/BatchNorm/batchnorm/mul_1: 3da64587
FeatureExtractor/MobilenetV2/expanded_conv_15/depthwise/BatchNorm/batchnorm/add_1: 3dfd366d
FeatureExtractor/MobilenetV2/expanded_conv_15/depthwise/Relu6: 3d418306
FeatureExtractor/MobilenetV2/expanded_conv_15/project/Conv2D: 3db42524
FeatureExtractor/MobilenetV2/expanded_conv_15/project/BatchNorm/batchnorm/mul_1: 3e2abec9
FeatureExtractor/MobilenetV2/expanded_conv_15/project/BatchNorm/batchnorm/add_1: 3e1c1783
FeatureExtractor/MobilenetV2/expanded_conv_15/add: 3e75f116
FeatureExtractor/MobilenetV2/expanded_conv_16/expand/Conv2D: 3e8ebb70
FeatureExtractor/MobilenetV2/expanded_conv_16/expand/BatchNorm/batchnorm/mul_1: 3da0801f
FeatureExtractor/MobilenetV2/expanded_conv_16/expand/BatchNorm/batchnorm/add_1: 3da48f8e
FeatureExtractor/MobilenetV2/expanded_conv_16/expand/Relu6: 3d418306
FeatureExtractor/MobilenetV2/expanded_conv_16/depthwise/depthwise: 3d4fd29d
FeatureExtractor/MobilenetV2/expanded_conv_16/depthwise/BatchNorm/batchnorm/mul_1: 3deb5c49
FeatureExtractor/MobilenetV2/expanded_conv_16/depthwise/BatchNorm/batchnorm/add_1: 3e03cf21
FeatureExtractor/MobilenetV2/expanded_conv_16/depthwise/Relu6: 3d418306
FeatureExtractor/MobilenetV2/expanded_conv_16/project/Conv2D: 3dd26cae
FeatureExtractor/MobilenetV2/expanded_conv_16/project/BatchNorm/batchnorm/mul_1: 3e005e1d
FeatureExtractor/MobilenetV2/expanded_conv_16/project/BatchNorm/batchnorm/add_1: 3dc9ae9e
FeatureExtractor/MobilenetV2/Conv_1/Conv2D: 3d96db3d
FeatureExtractor/MobilenetV2/Conv_1/BatchNorm/batchnorm/mul_1: 3dcbb74d
FeatureExtractor/MobilenetV2/Conv_1/BatchNorm/batchnorm/add_1: 3df92689
FeatureExtractor/MobilenetV2/Conv_1/Relu6: 3d418306
BoxPredictor_1/ClassPredictor/Conv2D: 3e776427
BoxPredictor_1/ClassPredictor/BiasAdd: 3e8509ca
FeatureExtractor/MobilenetV2/layer_19_1_Conv2d_2_1x1_256/Conv2D: 3db2dd76
FeatureExtractor/MobilenetV2/layer_19_1_Conv2d_2_1x1_256/BatchNorm/batchnorm/mul_1: 3dbcb501
FeatureExtractor/MobilenetV2/layer_19_1_Conv2d_2_1x1_256/BatchNorm/batchnorm/add_1: 3db34344
FeatureExtractor/MobilenetV2/layer_19_1_Conv2d_2_1x1_256/Relu6: 3d418306
FeatureExtractor/MobilenetV2/layer_19_2_Conv2d_2_3x3_s2_512_depthwise/depthwise: 3cbe57f8
FeatureExtractor/MobilenetV2/layer_19_2_Conv2d_2_3x3_s2_512_depthwise/BatchNorm/batchnorm/mul_1: 3e27c27f
FeatureExtractor/MobilenetV2/layer_19_2_Conv2d_2_3x3_s2_512_depthwise/BatchNorm/batchnorm/add_1: 3dd822c8
FeatureExtractor/MobilenetV2/layer_19_2_Conv2d_2_3x3_s2_512_depthwise/Relu6: 3d418306
FeatureExtractor/MobilenetV2/layer_19_2_Conv2d_2_3x3_s2_512/Conv2D: 3d3eb517
FeatureExtractor/MobilenetV2/layer_19_2_Conv2d_2_3x3_s2_512/BatchNorm/batchnorm/mul_1: 3e2b93a6
FeatureExtractor/MobilenetV2/layer_19_2_Conv2d_2_3x3_s2_512/BatchNorm/batchnorm/add_1: 3df1ed44
FeatureExtractor/MobilenetV2/layer_19_2_Conv2d_2_3x3_s2_512/Relu6: 3d418306
BoxPredictor_2/ClassPredictor/Conv2D: 3e3289b9
BoxPredictor_2/ClassPredictor/BiasAdd: 3e36705f
FeatureExtractor/MobilenetV2/layer_19_1_Conv2d_3_1x1_128/Conv2D: 3d9bf7df
FeatureExtractor/MobilenetV2/layer_19_1_Conv2d_3_1x1_128/BatchNorm/batchnorm/mul_1: 3d532637
FeatureExtractor/MobilenetV2/layer_19_1_Conv2d_3_1x1_128/BatchNorm/batchnorm/add_1: 3d664ecb
FeatureExtractor/MobilenetV2/layer_19_1_Conv2d_3_1x1_128/Relu6: 3d418306
FeatureExtractor/MobilenetV2/layer_19_2_Conv2d_3_3x3_s2_256_depthwise/depthwise: 3c935403
FeatureExtractor/MobilenetV2/layer_19_2_Conv2d_3_3x3_s2_256_depthwise/BatchNorm/batchnorm/mul_1: 3dbac881
FeatureExtractor/MobilenetV2/layer_19_2_Conv2d_3_3x3_s2_256_depthwise/BatchNorm/batchnorm/add_1: 3d5e7c2b
FeatureExtractor/MobilenetV2/layer_19_2_Conv2d_3_3x3_s2_256_depthwise/Relu6: 3d418306
FeatureExtractor/MobilenetV2/layer_19_2_Conv2d_3_3x3_s2_256/Conv2D: 3d018083
FeatureExtractor/MobilenetV2/layer_19_2_Conv2d_3_3x3_s2_256/BatchNorm/batchnorm/mul_1: 3e1c6e4a
FeatureExtractor/MobilenetV2/layer_19_2_Conv2d_3_3x3_s2_256/BatchNorm/batchnorm/add_1: 3df9ba5e
FeatureExtractor/MobilenetV2/layer_19_2_Conv2d_3_3x3_s2_256/Relu6: 3d418306
BoxPredictor_3/ClassPredictor/Conv2D: 3e2df009
BoxPredictor_3/ClassPredictor/BiasAdd: 3e35380e
FeatureExtractor/MobilenetV2/layer_19_1_Conv2d_4_1x1_128/Conv2D: 3d57357a
FeatureExtractor/MobilenetV2/layer_19_1_Conv2d_4_1x1_128/BatchNorm/batchnorm/mul_1: 3d81a665
FeatureExtractor/MobilenetV2/layer_19_1_Conv2d_4_1x1_128/BatchNorm/batchnorm/add_1: 3d81f88b
FeatureExtractor/MobilenetV2/layer_19_1_Conv2d_4_1x1_128/Relu6: 3d418306
FeatureExtractor/MobilenetV2/layer_19_2_Conv2d_4_3x3_s2_256_depthwise/depthwise: 3c28558a
FeatureExtractor/MobilenetV2/layer_19_2_Conv2d_4_3x3_s2_256_depthwise/BatchNorm/batchnorm/mul_1: 3d53a414
FeatureExtractor/MobilenetV2/layer_19_2_Conv2d_4_3x3_s2_256_depthwise/BatchNorm/batchnorm/add_1: 3d345a1e
FeatureExtractor/MobilenetV2/layer_19_2_Conv2d_4_3x3_s2_256_depthwise/Relu6: 3d418306
FeatureExtractor/MobilenetV2/layer_19_2_Conv2d_4_3x3_s2_256/Conv2D: 3c7b6c26
FeatureExtractor/MobilenetV2/layer_19_2_Conv2d_4_3x3_s2_256/BatchNorm/batchnorm/mul_1: 3e16a04e
FeatureExtractor/MobilenetV2/layer_19_2_Conv2d_4_3x3_s2_256/BatchNorm/batchnorm/add_1: 3ddaac26
FeatureExtractor/MobilenetV2/layer_19_2_Conv2d_4_3x3_s2_256/Relu6: 3d418306
BoxPredictor_4/ClassPredictor/Conv2D: 3e1e5a10
BoxPredictor_4/ClassPredictor/BiasAdd: 3e1f6ed5
FeatureExtractor/MobilenetV2/layer_19_1_Conv2d_5_1x1_64/Conv2D: 3d869754
FeatureExtractor/MobilenetV2/layer_19_1_Conv2d_5_1x1_64/BatchNorm/batchnorm/mul_1: 3cd49c1a
FeatureExtractor/MobilenetV2/layer_19_1_Conv2d_5_1x1_64/BatchNorm/batchnorm/add_1: 3cf85ff2
FeatureExtractor/MobilenetV2/layer_19_1_Conv2d_5_1x1_64/Relu6: 3d418306
FeatureExtractor/MobilenetV2/layer_19_2_Conv2d_5_3x3_s2_128_depthwise/depthwise: 3bba994c
FeatureExtractor/MobilenetV2/layer_19_2_Conv2d_5_3x3_s2_128_depthwise/BatchNorm/batchnorm/mul_1: 3d14f1e4
FeatureExtractor/MobilenetV2/layer_19_2_Conv2d_5_3x3_s2_128_depthwise/BatchNorm/batchnorm/add_1: 3ceda395
FeatureExtractor/MobilenetV2/layer_19_2_Conv2d_5_3x3_s2_128_depthwise/Relu6: 3d418306
FeatureExtractor/MobilenetV2/layer_19_2_Conv2d_5_3x3_s2_128/Conv2D: 3ceb1b83
FeatureExtractor/MobilenetV2/layer_19_2_Conv2d_5_3x3_s2_128/BatchNorm/batchnorm/mul_1: 3e1d677c
FeatureExtractor/MobilenetV2/layer_19_2_Conv2d_5_3x3_s2_128/BatchNorm/batchnorm/add_1: 3dd1ad00
FeatureExtractor/MobilenetV2/layer_19_2_Conv2d_5_3x3_s2_128/Relu6: 3d418306
BoxPredictor_5/ClassPredictor/Conv2D: 3e1f973c
BoxPredictor_5/ClassPredictor/BiasAdd: 3e2639a0
BoxPredictor_0/BoxEncodingPredictor/Conv2D: 3df85b8f
BoxPredictor_0/BoxEncodingPredictor/BiasAdd: 3e0b3f59
BoxPredictor_1/BoxEncodingPredictor/Conv2D: 3d60f80f
BoxPredictor_1/BoxEncodingPredictor/BiasAdd: 3d4a1b1e
BoxPredictor_2/BoxEncodingPredictor/Conv2D: 3d114a7c
BoxPredictor_2/BoxEncodingPredictor/BiasAdd: 3d0a5ede
BoxPredictor_3/BoxEncodingPredictor/Conv2D: 3d1eeb74
BoxPredictor_3/BoxEncodingPredictor/BiasAdd: 3d0991b1
BoxPredictor_4/BoxEncodingPredictor/Conv2D: 3caf5bab
BoxPredictor_4/BoxEncodingPredictor/BiasAdd: 3cd34b0a
BoxPredictor_5/BoxEncodingPredictor/Conv2D: 3cc8ca69
BoxPredictor_5/BoxEncodingPredictor/BiasAdd: 3cfe2ff0
Const: 3c010a14
MultipleGridAnchorGenerator: 3a4fb8dc
MultipleGridAnchorGenerator_1: 3a4fb8dc
MultipleGridAnchorGenerator_2: 3a4fb8dc
MultipleGridAnchorGenerator_3: 3a4fb8dc
MultipleGridAnchorGenerator_4: 3a4fb8dc
MultipleGridAnchorGenerator_5: 3a4fb8dc
concat_priorbox: 3a4fb8dc
Postprocessor_HL_1804289383: 3f7e0c18
Postprocessor: 3f7e0c18
